#version: 0.2
م ی
ا ی
ا ن
ا ر
ب ه</w>
می ‌
ا ن</w>
د ر</w>
ا ی</w>
ک ه</w>
ه ‌
ن د</w>
ا ز</w>
ا س
ر ا</w>
و د</w>
د ا
ب ر
ر و
س ت
ک ر
‌ ه
ا ل
ای ن</w>
ا م
ا ر</w>
د ی
و ر
اس ت</w>
د ه‌
د ه</w>
ب ا
ب ا</w>
ب ی
ن ی
خ و
ر ی
ر ا
ت و
ب ود</w>
س ا
ک ن
ا ه
س ی
ف ت</w>
ش ت
د و
ف ت
ی ک</w>
م و
د ر
ل ی
ا و</w>
ش د</w>
‌ه ا</w>
گ ر
د ار
س ت</w>
بر ای</w>
ه م
ل ا
‌ه ای</w>
و ی
ت ی</w>
ل ی</w>
م ا
کر د</w>
ب و
آ ن</w>
د ی</w>
پ ی
آ ن
ز ی
و ر</w>
م ن</w>
ن ا
د ند</w>
ه ای</w>
م ر
و ن</w>
ا ف
م ا</w>
گ فت</w>
ا ب
ان ی</w>
د م</w>
ه ا</w>
ا ت</w>
د ن</w>
ه م</w>
م ن
ت ا</w>
ب ر</w>
ف ر
ش ت</w>
ای ی</w>
ن گ
خ ود</w>
‌ بود</w>
س ر
گ ر</w>
ن و
ش ی
ار ی</w>
ت ر
ت ا
ا د</w>
ش ده‌
ان د</w>
ا م</w>
ک ند</w>
ی ر
ز ی</w>
و ا
اس ت
ن ی</w>
ه‌ ای</w>
ن د
خو اه
ک و
ست ان</w>
د ه
ا و
ن ه</w>
ق ی
خ ت
ن می‌
م ح
ان ه</w>
ای د</w>
و ی</w>
گ ذ
ام ا</w>
ک ی</w>
ای ن
ی د</w>
ا ه</w>
ی ا</w>
ق ر
م ان</w>
ش ود</w>
م ع
ت ر</w>
ه ر</w>
چ ه</w>
آن ‌ها</w>
دا د</w>
ه ر
ل ه</w>
ک ار</w>
ت ح
ور د</w>
ه ی
ا ل</w>
چ ی
ی م</w>
ن ظ
خ ی
ه‌ های</w>
ش ان</w>
م ی</w>
ا ح
پ ر
ل و
س ی</w>
م ان
ش ک
ک ش
دا شت</w>
ب ار
م ای
ا ع
خ ا
ش ر
ک ار
ی ن</w>
ه ست
ف ا
آ م
با شد</w>
ا ز
رو ی</w>
گ ی</w>
دا شت
س و
دی گر</w>
دار د</w>
ب ع
و ق
دی د</w>
گ و
د ست
کر ده‌
ش و
م ق
د و</w>
ی ر</w>
ب ی</w>
کن ند</w>
ت ص
ط ر
ج ا</w>
رو ز</w>
ا د
سا ل</w>
ن ام
د ان
ت ی
ب اید</w>
ا ق
تو ان
پ س</w>
می ن</w>
با ز
هم ه</w>
ال ی</w>
ز ه</w>
د ا</w>
م ت
ا ج
ی ه</w>
ای ش</w>
گ یر
ن ده</w>
ت ما
گ فت
س ه</w>
س ر</w>
ش ن
خ ت</w>
ت و</w>
گ اه</w>
ان ت
ش ما</w>
م ج
ز ار
ک م
می‌ کند</w>
ب ل
پ و
د ست</w>
م س
ک نی
ب ال
ح ر
ی ت</w>
ا ت
ا ک
ا فت
کن م</w>
می‌ شود</w>
ب خ
ب ز
ت ن
ت ع
ج ه</w>
م ل
ح ال</w>
م ورد</w>
ج ود</w>
قر ار</w>
بو دند</w>
م ه</w>
بی ‌
نی ن</w>
گ وی
ک ت</w>
ر ی</w>
ری ن</w>
ن گ</w>
خ ان
ا ط
ب ت</w>
ن ان</w>
م ش
خواه د</w>
ر س
ه‌ ها</w>
ئ ی
ا گر</w>
ع ی</w>
ا ص
ا دی</w>
ج و
ب ه
ق ه</w>
ن ش
ک ر</w>
گر فت
ج ه
ن ‌
کر دند</w>
ده د</w>
ش ی</w>
ان ج
می‌ کرد</w>
ز د</w>
م ص
ر و</w>
ام ی</w>
ل ا</w>
ب سی
شت ه</w>
چ نین</w>
ر فت
تو س
ی کی</w>
خو د
ع ه</w>
دا ر</w>
ا ش</w>
دو ل
نظ ر</w>
ط ور</w>
ک ن</w>
د ل
ج ی
ش ه</w>
اف ز
ر سی
ار د</w>
ور ی</w>
ز مان</w>
را ه</w>
ان دا
ده‌ بود</w>
ع م
پ ای
و جود</w>
هست ند</w>
گ ی
ک ت
ت ق
ج م
ح ال
زی ر</w>
بع د</w>
ز ند
ه‌ بود</w>
نی ز</w>
ک ی
بار ه</w>
ب ار</w>
پ ن
و ل</w>
ن م
خ ص
گ زار
ن ق
م ت</w>
شده‌ است</w>
2 0
ص ور
ف کر</w>
و لی</w>
بی شت
ش ‌
ن ف
بز ر
رو ن</w>
ده‌ است</w>
هی چ</w>
انج ام</w>
م ط
ف ی
ب ان
کر دن</w>
ه و
م ث
پی ش</w>
این که</w>
ش م
ار ت
ا ش
ع ت</w>
ب ان</w>
خ انه</w>
ا ض
گ ان</w>
س ال
وق تی</w>
ق ی</w>
کش ور</w>
نی ست</w>
ب از</w>
می ان</w>
می‌ کنند</w>
بی ن</w>
ک ل
وا ق
ب ه‌
ان ‌
شده‌ بود</w>
آ ز
ت ج
ش ده</w>
چی زی</w>
پ رو
خی لی</w>
تما م</w>
ص د
تن ها</w>
ف ق
نام ه</w>
می‌ توان
ک اری</w>
شی د</w>
ر ه</w>
گزار ش</w>
شو ند</w>
بسی ار</w>
م د
بر خ
است فا
دار ند</w>
پ اک
می لی
ف ی</w>
ت رین</w>
ب د
م انی</w>
دول ت</w>
ر ئی
ا ب</w>
چ ون</w>
ال ی
ن شان</w>
می‌ تو
خ ار
ار ی
چ ند</w>
ست م</w>
د ری
ت ه</w>
استفا ده</w>
نو ان</w>
ن م</w>
. "</w>
ل ‌
اف را
ن س
می‌ گوی
ه می
با ش
کر ده</w>
ام ل</w>
ط ر</w>
دی م</w>
بیشت ر</w>
ار ه</w>
‌ تر</w>
ه ایی</w>
ن مای
اس ی</w>
آ ور
گیر ی</w>
ب ن
مر دم</w>
من ط
آ ی
داشت ه</w>
ک ان</w>
دی گر
دار ی</w>
و ل
ب ‌
ن ز
ت ‌
ل ح
رو ی
ح تی</w>
ق اب
گ رو
لا ت</w>
گر فت</w>
م م
ص د</w>
کنی د</w>
کر دم</w>
توس ط</w>
لا م</w>
ا ده</w>
ت ‌های</w>
می‌ شد</w>
دو ر</w>
20 0
می‌ دهد</w>
ش دند</w>
ی ک
د ان</w>
‌ه ایی</w>
صور ت</w>
م ار
بر گ
اه ی</w>
ع نوان</w>
ج ل
آم د</w>
فق ط</w>
ا تی</w>
کنی م</w>
ست ه</w>
ر فت</w>
ح م
غ ی
زند گی</w>
ط ی</w>
خو ب</w>
ک ستان</w>
هم ان</w>
لی س</w>
را ت</w>
ت م
ای ج
ای ت</w>
ک س</w>
ق و
ق ان
ف ع
کرده‌ است</w>
می‌ کنم</w>
سا خت
ری ک
ت ل
ای ست
اط لا
آ ق
کو چ
ص ح
ه ار</w>
ما ه</w>
هم ‌
د ن
ام نی
م نا
رسی د</w>
مث ل</w>
دا خ
تو جه</w>
ا ور
ا س</w>
ا ئ
می‌ باشد</w>
رو ز
با ل</w>
ا فت</w>
شر کت</w>
ان گ
پاک ستان</w>
ه‌ است</w>
ه مین</w>
ی ل</w>
ه نگ
ز ش</w>
0 0</w>
ک سی</w>
ق ب
س ط
ان ی
ا تا
ع ات</w>
ا ون</w>
بی رون</w>
مص ر</w>
ف رو
آ مو
س خ
گر د
خ ور
گو نه</w>
ع ر
دو ن</w>
ا شت
آم ریک
ک س
نگ اه</w>
ا می
کن ون</w>
ما ت</w>
جم ه
نز دی
ایج اد</w>
پر دا
پ لیس</w>
ق ت</w>
مم کن</w>
ت ن</w>
ار ت</w>
ع ل
ز ار</w>
افز ایش</w>
منط قه</w>
ش دن</w>
بی ش</w>
بال ا</w>
گذ شته</w>
ز ن</w>
می‌ خو
مر د</w>
طر ف</w>
بر د</w>
ا دا
ا خ
دار م</w>
ج ی</w>
ت غی
هم چنین</w>
ن ر
انت خا
آ ر
کم ک</w>
ند گان</w>
ش ‌های</w>
‌ شده‌
خ د
ل ب</w>
ت ش
ای م</w>
م خ
ده‌ ای</w>
م ست
در باره</w>
د ور
پی دا</w>
م سا
آ ورد</w>
ه ی</w>
ع و
سا زمان</w>
دا ده</w>
اف غ
س ای
ز م</w>
ب دون</w>
ده ند</w>
ت لا
ع ی
ک لی
ج دید</w>
ک م</w>
ان س
د ود</w>
خا طر</w>
بو دم</w>
سا زی</w>
چ را</w>
ج ای</w>
ن ا</w>
ش م</w>
میلی ون</w>
مو ض
چی ز</w>
شک ل</w>
دی ن</w>
باش ند</w>
مان ند</w>
ش ب</w>
ز ان</w>
اب ی</w>
مر ک
بزر گ</w>
ه د
ق در</w>
ف ری
م ‌
ز مانی</w>
آ سی
پ ذ
ز و
آن جا</w>
وق ت</w>
ه‌ اش</w>
م دی
نف ر</w>
ق در
دا م</w>
خص و
نی رو
لی ل</w>
ز مین</w>
سا س</w>
س ‌
کن ار</w>
ک می
س ف
دیگر ی</w>
ال ه</w>
صد ای</w>
ر سی</w>
ج وی
ج ن
و ع</w>
ر د</w>
آق ای</w>
پ ا</w>
زی را</w>
خواه ند</w>
ن بود</w>
ه نو
می‌گوی د</w>
ف ل
س م</w>
ط ه</w>
ح ی
ش اید</w>
افرا د</w>
در ست</w>
ت ب
رس ان
با ت</w>
اق تص
هنو ز</w>
قر قی
دل ار</w>
ت رو
ادا مه</w>
اح ساس</w>
ا کنون</w>
ک شت
حال ا</w>
شده‌ اند</w>
سر مای
ث ر</w>
اتا ق</w>
آ ب</w>
گ ه</w>
کرده‌ بود</w>
خود ش</w>
ت را
آ غ
و ض
و زیر</w>
هر ی</w>
ن ج
ده‌ اند</w>
و ارد</w>
این جا</w>
چ نان</w>
پ ار
گذ اری</w>
گ ا
ز می
ح الی</w>
ش رو
ست ی</w>
ج مع
بخ ش</w>
او لی
اع لام</w>
م شت
ش ش</w>
دا د
کش ور
ه فت
تر ی</w>
برخ ی</w>
ق ط
ر ه
می‌ شوند</w>
ک ام
غ یر
ت ش</w>
می‌ دان
مو ق
ع ا</w>
تص می
ت ای
کو د
کرده‌ اند</w>
چ ی</w>
می‌ کردند</w>
م ذ
ع یت</w>
ا خت
ن مو
ع لا
شن به</w>
دار ه</w>
شرو ع</w>
ش هر</w>
س وی</w>
م را</w>
ار و
ن ت</w>
رئی س</w>
کن ی</w>
خان وا
من ظ
ل ب
توس عه</w>
ی افت
گیر د</w>
ژ ه</w>
سا عت</w>
ک اه
ک ا
فر ان
ق ات</w>
افغ ان
ک ان
و نی</w>
ام بر</w>
م لی</w>
ب بی
قب ل</w>
خان م</w>
ج ا
تغی یر</w>
پ شت</w>
نا م</w>
می‌تو اند</w>
ما ل</w>
پی ش
پن ج
ن خ
بر ی</w>
دو باره</w>
ج ان</w>
تا جی
ک شید</w>
نگ ی</w>
نس بت</w>
م تح
ش ب
م بار
غ ذ
ک شی
م ه
تو لی
بی ن‌
ام ات</w>
ی ‌
نمی‌ توان
نم ود</w>
م در
را ح
آمریک ا</w>
آ خ
ق ز
سا ز
ری ق</w>
ب ق</w>
او ل</w>
ک ل</w>
جه ت</w>
ای شان</w>
ال مل
پ اس
زی ادی</w>
حر ف</w>
آ یا</w>
ف و
ع مو
ر ان</w>
بین‌ المل
افغان ستان</w>
اب ر</w>
همی شه</w>
ه ن
عم لی
ص ن
حم له</w>
گ ری
ن تی
صح بت</w>
د نی
گ یر</w>
ن ه
تاجی کستان</w>
ام و
اطلا عات</w>
هی چ
کر ی
می ز</w>
س مت</w>
‌ آ
گرو ه</w>
سی د</w>
دا دند</w>
حر کت</w>
کن نده</w>
ط ال
دو ست</w>
پ ر</w>
ن دارد</w>
ش نی
بر و
ب ع</w>
و ه</w>
ع ق
ش نا
بل ند</w>
از ب
1 9
م ب
لح ظ
س‌ جمه
آغ از</w>
موض وع</w>
ع لی
تح قی
با زی</w>
م د</w>
به‌ طور</w>
ب ست
از ه</w>
س پس</w>
ژ و
چ هار</w>
نزدی ک</w>
ن گر
سر ش</w>
بین‌المل لی</w>
انت ظ
ال ب
ارت با
پذ یر
قرقی ز
غ ر
ص ی</w>
داشت ند</w>
مس ئ
قان ون</w>
طر ح</w>
س‌جمه ور</w>
سرمای ه‌
اف ی</w>
ه ان</w>
ن داشت</w>
سی اسی</w>
بسی اری</w>
چ ر
خواه م</w>
بر نامه</w>
م خت
قز اق
طال بان</w>
ط ریق</w>
د لیل</w>
کاه ش</w>
پ ی</w>
نیرو های</w>
م را
خو است</w>
ح دود</w>
ج ب</w>
مق امات</w>
ر ف
ر ای</w>
دی و
د ‌بود</w>
ا در</w>
‌ بودند</w>
هم راه</w>
ش ار</w>
س ل
رئی س‌جمهور</w>
دا دن</w>
ح ز
کوچ ک</w>
مرک ز</w>
ر ش</w>
ترو ری
ه‌ اند</w>
هیچ ‌
غ یر</w>
ش ن</w>
دن بال</w>
در صد</w>
بو ده</w>
1 0</w>
ی ع
کن ان</w>
ک می</w>
دان ش
خار ج</w>
یر ه</w>
ف را
ست ی
ز نان</w>
ری د</w>
اس ل
آ ل
ک شته</w>
ه ار
ن دی</w>
ط ول</w>
بر ابر</w>
ب ح
وا ل</w>
قرقیز ستان</w>
شی ن</w>
ح اض
ب نا
گ و</w>
ض ای</w>
ری ان</w>
د خ
گرفت ه</w>
پی و
می انه</w>
ب انی</w>
ان ش</w>
امنی ت</w>
چ شم
پی ش‌
نا گ
مر بو
م ند</w>
م سی
عم ل</w>
ان د
ی افت</w>
گذ ا
هد ف</w>
می‌ داد</w>
ست ند</w>
ت ان</w>
بزر گ
با ع
یع نی</w>
چی ز
چ و
و ح
مو اد</w>
خی ر</w>
م ز
ظ اه
ض ر
شر کت
اقتص ادی</w>
کن تر
ز ن
خ ط
ت ک
ب گوی
اس اس</w>
گذ ار
ش امل</w>
ر م</w>
دی ده</w>
د گی</w>
ج نگ</w>
تو ن</w>
بر رسی</w>
قزاق ستان</w>
را ه
د قی
تصمی م</w>
پو ل</w>
به تر</w>
انتخا ب</w>
ات فا
گفت م</w>
پای ان</w>
پ ا
م الی</w>
بو ده‌است</w>
الب ته</w>
اش اره</w>
آن چه</w>
ی اد</w>
گفت ه</w>
ک ال
چ ن
ر ود</w>
ر ف</w>
خو ان
خ ص</w>
با د</w>
این ‌
اندا زه</w>
اس ی
ا دی
ئ ن</w>
مس ل
ش ور
خو است
‌ شده</w>
نی از</w>
سی ستم</w>
ح و
باع ث</w>
ب ای
است ان</w>
نخ ست
م غ
بان ک</w>
اب ل</w>
ا ور</w>
هفت ه</w>
مد ت</w>
قاب ل‌
ض ی</w>
سا خت</w>
س ب
ح مای
تا ب</w>
بل که</w>
افت اد</w>
آ ما
نتی جه</w>
شن ه
جه ان</w>
تح ت</w>
ان گی
کشور های</w>
پی شنه
پای ین</w>
ور ی
هم‌ کاری</w>
مو ف
مس اله</w>
تا ث
می ت</w>
حر ف
ت ف
افز ود</w>
آ س
‌ ترین</w>
گ اهی</w>
ن ار
م هم
لا ح
د ک
ج ام
امنی تی</w>
ی اد
ش اه
خت ه</w>
بو ر</w>
ا ظ
دول تی</w>
د هم</w>
خو ش
ج ایی</w>
ان ‌ها</w>
آی نده</w>
آز اد</w>
واق عا</w>
نمی‌ تو
نظ امی</w>
س د</w>
حز ب</w>
ج ر</w>
چ هر
پ ل
مط ال
داخ ل</w>
گو ش</w>
سط ح</w>
ح ل</w>
جوی ان</w>
ج وا
تلا ش</w>
بو دن</w>
بر نام
اس م</w>
اج تما
چ ش
س ری
ز ند</w>
ح ق</w>
اس ب</w>
آ ید</w>
ژ ی</w>
بر اساس</w>
اص لی</w>
اج ازه</w>
کام لا</w>
م ال
ت یم</w>
بنا بر
ب چ
ب م
مربو ط</w>
دار یم</w>
د ل</w>
خو دم</w>
حاض ر</w>
جوا ب</w>
او ت</w>
کنتر ل</w>
عمو می</w>
دو م</w>
انت ق
ه زی
قدر ت</w>
ص ی
دست ‌
ح قی
ح د</w>
ج ان
تر ک
ن وی
م ‌های</w>
ش ان
دا ت</w>
انتظ ار</w>
ام روز</w>
ور یه</w>
س پ
آن که</w>
گ ز</w>
مر گ</w>
خو بی</w>
خ ن
حمای ت</w>
ج نو
تولی د</w>
ت ‌ها</w>
بنابر این</w>
اس را
گرد د</w>
گ ست
کن ه</w>
من ت
مخت ل
ق ل</w>
ق ف</w>
ط بی
ز ده</w>
ده‌ های</w>
خار جی</w>
ج ز</w>
تق ری
پن ج</w>
داشت م</w>
تع داد</w>
ازب کستان</w>
‌ه ایش</w>
و زار
ه ن</w>
ن و</w>
م اه
ز بان</w>
جه انی</w>
ا ق</w>
ا ثر</w>
آسی ای</w>
آ را
0 00</w>
مبار زه</w>
تر ک</w>
اسرا ئی
نی م</w>
مدر سه</w>
ح سا
هر گز</w>
د رو
تقری با</w>
بر ی
ای ل</w>
هست م</w>
نو ع</w>
نش ست</w>
می‌ دهند</w>
ما در
را ه‌
تو ی</w>
اولی ن</w>
‌ ال
پ ز
م توجه</w>
رس د</w>
ج لو
ت ه
ت س
گذ اشت
ن ‌های</w>
م شک
ری ت</w>
بر ق</w>
آ ش
مح ص
م ام
عملی ات</w>
د های</w>
ح یه</w>
ح ض
ا داره</w>
ی و
گ ل
ند ان</w>
ل بخ
سر عت</w>
د ها</w>
ا تح
می‌ رسید</w>
مع مو
را ب
خانوا ده</w>
ج نگ
تر تی
ب ش
م ک
ش هر
دی ل</w>
دک تر</w>
دا ده‌است</w>
خت ر</w>
خ ر
جم له</w>
ج و</w>
ج ریان</w>
با زی
کمی ته</w>
پ خ
لا زم</w>
د ت</w>
باز ار</w>
چ گونه</w>
شر ای
د ختر</w>
تص وی
بی م
ب له</w>
ار ائ
اجتما عی</w>
فا ص
ر ان
بیشت ری</w>
پردا خت</w>
واق ع</w>
ل ر
ساز مان
ز خ
ر نگ</w>
خ بر</w>
تو ن
اندا خت</w>
ک و</w>
ه‌ بودند</w>
ع ص
ص اد
دار ای</w>
تا زه</w>
ت اری
آن ان</w>
گا ه‌های</w>
فر مان
ده‌ ام</w>
ب ش</w>
ا ف</w>
گذا شت</w>
چ شم</w>
وی ت</w>
فر ص
ض ی
ص ف
زی ر
دری افت</w>
خ یره</w>
ت شک
ت خ
ت ار
بی نی</w>
اف ه</w>
ا غ
1 1</w>
یک دیگر</w>
می‌ کنیم</w>
می زان</w>
شن اس
سرمایه‌ گذاری</w>
خ ورد</w>
جو ان</w>
ان دی
پ در
فع ال
علی ه</w>
س نگ
ر ای
دی دار</w>
ده‌ بودند</w>
برگ زار</w>
اب د</w>
پاس خ</w>
وض عیت</w>
وزار ت</w>
هنگ ام</w>
ش ‌ها</w>
خواه د‌بود</w>
ان ان</w>
ا ج</w>
پر سید</w>
نا حیه</w>
لی ت</w>
ع ب
ش خص
زی اد</w>
ح ق
تب دیل</w>
اه ای</w>
افت ا
اع ضای</w>
اص لا</w>
ات ‌
‌ ان</w>
یک ‌
ژ ان
نمی‌ دان
مط م
مج مو
قر ار
س ن</w>
س ن
س عی</w>
دو ست
ای ال
آمو زش</w>
ک امل</w>
وی ژه</w>
هنگ امی</w>
ع ه
ش ه
ز ه‌
د ش</w>
د رون</w>
ح دا
بن دی</w>
با س</w>
ب قه</w>
ام ت</w>
ارتبا ط</w>
ارت ش</w>
ا پ
گر ان</w>
هو ا</w>
می‌ کردم</w>
منا بع</w>
فی ل
ص ل
داخ لی</w>
بر ان</w>
انتخا بات</w>
ک افی</w>
چ ار
نش ست
مج ل
ع را
تل ف
تاث یر</w>
امی دو
2 0</w>
ه‌ هایی</w>
نم اید</w>
ف شار</w>
ف ج
د فت
حال ت</w>
ام ر</w>
است ان
آی ند</w>
1 2</w>
ی که</w>
پیشنه اد</w>
وی ه</w>
می‌ گفت</w>
ری ف</w>
تج اری</w>
ا کر
ی ‌های</w>
و ان</w>
مختل ف</w>
مح لی</w>
ع مل
ع اتی</w>
ر شد</w>
خو اب</w>
ب د</w>
ارو پا</w>
5 0</w>
کن ندگان</w>
ک لی</w>
ک لا
و ال
ناگ هان</w>
فل سط
ف ه</w>
ع کس</w>
ط وری</w>
را ف</w>
دا ل
ترتی ب</w>
بح ث</w>
ارائ ه</w>
وی ی</w>
فاص له</w>
ص ب
داد گاه</w>
تا ک
بل ا</w>
آن ‌
گ ل</w>
پ شت
ه‌ ام</w>
هم ان‌
ه ام</w>
می‌تو ان</w>
م هم</w>
لا ح</w>
قان ونی</w>
ق ل
فری اد</w>
سال ه</w>
ز اری</w>
خد مات</w>
خ ط</w>
ج ای
ب ده
اس ر</w>
گ شت</w>
می‌خو است</w>
می‌ رسد</w>
مح ل</w>
م دار
رفت ار</w>
دی دن</w>
در ک</w>
دخ تر
حقی قت</w>
بو د
اسرائی ل</w>
‌ ای</w>
کر دیم</w>
وی م</w>
و ار
می‌ زد</w>
منظ ور</w>
ع ش
ع زی
صب ح</w>
شک ست</w>
رو زی</w>
ر ک</w>
خی بر</w>
با قی</w>
ک ات
می‌ رود</w>
منت ظ
مق ابل</w>
مر د
لحظ ه</w>
ش ک</w>
تو ر</w>
بال ای</w>
اسل امی</w>
اب ت
آما ده</w>
گفت ند</w>
ک ا</w>
پ در</w>
ه‌ شده</w>
مش اه
مذ ه
ض ا</w>
ر ق
دنی ا</w>
تح ری
ت ری
امو ش</w>
اف ظ
گیر ند</w>
گر م</w>
کم ‌تر</w>
پ ای</w>
نار اح
نا ک</w>
ل ای
فر د</w>
شرای ط</w>
ش دم</w>
س کو
خی اب
خصو ص</w>
ت ور
آ هست
گ از</w>
میلی ارد</w>
مل ل</w>
مخ ال
ما در</w>
م ف
ع ض
س خت</w>
رو ند</w>
حض ور</w>
ئ ی</w>
آخ رین</w>
چ هار
و سی
ه‌ ه
ن ش</w>
می‌توان ند</w>
مو جود</w>
مو اف
مح ی
سر ی</w>
رفت ن</w>
دی دی</w>
دو شنبه</w>
داشت ن</w>
تو اف
ت ان
بی ان</w>
بع ضی</w>
‌ کننده</w>
می‌ آید</w>
سپ ت
دا و
خ دا</w>
تا مین</w>
اح تم
گرفت ن</w>
کش اور
ک ش</w>
و ز</w>
می‌ رفت</w>
ده‌ ها</w>
د را
ب تو
ا گه</w>
گر ی</w>
گر د</w>
ک تاب</w>
چ طور</w>
همان‌ طور</w>
ه نگ</w>
نی د</w>
ن ه‌های</w>
می‌ گیرد</w>
مر دی</w>
م اند</w>
ل ذ
سپت امبر</w>
سا بق</w>
س ان
را دی
خ لا
ام کان</w>
1 5</w>
ی ار</w>
کت اب
پیش اور</w>
می‌ بی
موف قی
منا ط
مق ام</w>
مجل س</w>
قو ق</w>
فر ست
فا ع</w>
صل ح</w>
ح قوق</w>
جم ع</w>
بی مار
کی لو
کری ست
ه زار</w>
نی از
موق ع</w>
مش غ
رو ش</w>
دیگر ان</w>
دی د
ح ه</w>
ب ور
ب سته</w>
هم چنان</w>
نو شت
نق ش</w>
ن ‌ها</w>
مذ اکر
علا وه</w>
ستی زه</w>
رسان ه‌ها</w>
دان ش</w>
تع ی
اه میت</w>
اظ هار</w>
ا در
گوی ی</w>
کو تا
وی د</w>
می‌ ز
ف همی
ص دا</w>
ش دت</w>
روز نامه</w>
راب طه</w>
جل و</w>
ای ران</w>
اط می
ار های</w>
ار زش</w>
ئ ل</w>
آز ادی</w>
یافت ه</w>
کود کان</w>
پی شر
پ سر</w>
می‌ گذ
مشاه ده</w>
م ز</w>
ط بق</w>
سای ر</w>
دقی قه</w>
د بی
خواه یم</w>
خا ص</w>
تج ارت</w>
ت کان</w>
‌ اش</w>
پی ر
نق ل</w>
ن ور</w>
م ش</w>
م بل
قاب ل</w>
ق ض
ق بی
عرا ق</w>
رفت ه</w>
دفت ر</w>
تاک ید</w>
اق دا
اص ل</w>
اب ت</w>
آرا م</w>
آ ه</w>
‌ و
گر دید</w>
کس انی</w>
چی ن</w>
مناط ق</w>
مدی ریت</w>
متح ده</w>
م تو
لو م</w>
ل ط
غ م</w>
ع جی
شب که</w>
ش کی</w>
سا زد</w>
ز ه‌ای</w>
خصو صی</w>
خ طر</w>
جام عه</w>
ج ر
تج ر
ت بر</w>
چهر ه</w>
واق عی</w>
هیچ‌ کس</w>
نی روی</w>
ن باید</w>
می ل</w>
لبخ ند</w>
ل باس</w>
صاد رات</w>
رو اب
ح ل
تو ضی
ب گذ
ا ط</w>
آ دم</w>
ن فر
مع ر
فران سه</w>
عو ض</w>
ص ند
سی ه</w>
زمی نه</w>
رفت ند</w>
اج رای</w>
ی ‌ها</w>
ژو ئن</w>
و ان
م ل</w>
ع اد
سو م</w>
س ان</w>
را ب</w>
جمع یت</w>
ج ع</w>
ا ث
ک ‌
ک جا</w>
ه وا
نف س</w>
مر دان</w>
ف کر
س ه‌
ز اده</w>
دور ه</w>
تای ید</w>
این ‌بود</w>
اع تما
اع ترا
اطمی نان</w>
از دو
چر خ
مو س
مح مد</w>
ل این</w>
ص ل</w>
شرکت ‌های</w>
ز شی</w>
دست گیر</w>
تحقی ق</w>
ت ل</w>
بی ه</w>
ا بر
آ وری</w>
1 4</w>
هزی نه</w>
ه ست</w>
م تر</w>
ع ظ
سی ون</w>
رس می</w>
در د</w>
دا دی</w>
ح س</w>
ایست ا
ار زی
اح س
اج را</w>
آن لاین</w>
ک شد</w>
پرو ژه</w>
پ ری
وی ل</w>
مست قی
مای ل</w>
قی مت</w>
ق ه‌ای</w>
ق صد</w>
شو م</w>
را ت
تص ور</w>
ت اب
ب س</w>
ان فج
آم ده</w>
3 0</w>
کریست ف</w>
ه ا
می‌ دو
مص ری</w>
مذه بی</w>
م ور
م شکل</w>
فع الی
عق ب</w>
ع الی</w>
ز نی</w>
رو ست
ح ی</w>
ح ف
جلو گیری</w>
ج ز
برگ زاری</w>
با ور</w>
ب دهد</w>
ا خیر</w>
آور یل</w>
آهست ه</w>
آخ ر</w>
گ زی
چ قدر</w>
و س</w>
ن تای
می‌ باشند</w>
مح کو
م الی
ش خص</w>
ش ا</w>
رو شن</w>
دار ید</w>
ب هر
اشت با
آ تش</w>
و ب</w>
نگ ه</w>
نتای ج</w>
مو ن</w>
م و</w>
لی م</w>
عه ده</w>
طبی عی</w>
سف ر</w>
سر اسر</w>
ز دن</w>
رو سیه</w>
ر ت</w>
در خ
خو ا</w>
خ ر</w>
جمه وری</w>
ج ذ
ترک من
بو ل</w>
ام ور</w>
ال ا</w>
ار ان</w>
ادی ه</w>
اتفا ق</w>
کشت ی</w>
می‌توان ست</w>
مق ای
مار س</w>
ط ل
ر اس
در از</w>
خ شو
اه ا</w>
ان ‌های</w>
اغ لب</w>
‌ سازی</w>
گرفت ند</w>
ک ‌های</w>
نر خ</w>
مشغ ول</w>
مت ف
م ظ
سخ نگ
ست انی</w>
رواب ط</w>
دست ش</w>
در ه</w>
د عو
خ ی</w>
جو انان</w>
تعی ین</w>
بع دی</w>
ار ش</w>
اتح ادیه</w>
ائ ی</w>
کود ک</w>
و س
مج بور</w>
م لا
ق لا
ق اع
فعال یت</w>
ف ا</w>
ع دم</w>
ط ‌
ز نده</w>
راح ی</w>
ر ژی</w>
د د</w>
خو ش</w>
حدا قل</w>
ج ست
ب گیرد</w>
این ده</w>
ایال ات‌
ایالات‌ متحده</w>
ی ی</w>
گ ن
چن دین</w>
پو ند</w>
پ ان
نخست ین</w>
ن ص
من اسب</w>
مدی ر</w>
ع تی</w>
د فاع</w>
خی ال</w>
تشک یل</w>
تروری سم</w>
اندا خت
ی ش</w>
ژان ویه</w>
پ سر
می‌ خواهم</w>
مقای سه</w>
ل ت</w>
فر ار</w>
شده‌ بودند</w>
سی ن</w>
سی م</w>
س وال</w>
س ند</w>
دانش گاه</w>
د ف
د ش
د س</w>
ج دا</w>
بخ شی</w>
اندا زی</w>
ان رژی</w>
ارزی ابی</w>
ا بی
19 9
‌ وزیر</w>
نگ اهی</w>
نخست ‌وزیر</w>
من جر</w>
ق دی
ق دم</w>
ق ادر</w>
فر و</w>
عش ق</w>
س روی
ر است</w>
جنو ب</w>
ببی نم</w>
ال ان</w>
ی ان</w>
ک ‌ها</w>
چ ار</w>
وض ع</w>
و لات</w>
نگ ه
می‌خو است
می‌ خواهد</w>
می‌ برد</w>
می‌ آورد</w>
می‌ آمد</w>
منتظ ر</w>
مشت رک</w>
فر آیند</w>
فت ه</w>
ط ول
سف ید</w>
سا ت</w>
دست ور</w>
در س</w>
د مو
خواه ید</w>
خ ب</w>
تم امی</w>
ت یر
بر ایش</w>
اعتما د</w>
ی ابد</w>
نو اح
مو جب</w>
مش خص</w>
فرو ش</w>
ش ع
ش اه</w>
س وریه</w>
زی د</w>
زند ان</w>
ج زی
ا تو
1 3</w>
‌آ باد</w>
ی نی</w>
و م</w>
هست یم</w>
نواح ی</w>
مسئ و
مر زی</w>
غذ ا</w>
ع لی</w>
شی م</w>
سخنگ وی</w>
دا ده‌بود</w>
دا دم</w>
خا طر
خ رید</w>
خ بر
خ ان</w>
حف ظ</w>
ج اده</w>
تاری خ</w>
اق دام</w>
کوتا ه</w>
می‌ کنی</w>
می‌ د
مشک لات</w>
مسی ر</w>
مت هم</w>
م ‌بود</w>
عل ت</w>
عض و</w>
ش ‌بود</w>
زخ می</w>
ز ا</w>
در خواست</w>
د تر</w>
توضی ح</w>
ترکمن ستان</w>
ت م</w>
بی ست</w>
اک تبر</w>
ازدو اج</w>
ار ای
ا زی</w>
و ف</w>
ه ل
موفقی ت</w>
مح افظ
لو له</w>
ل ه‌ای</w>
ق ا</w>
به ترین</w>
ب گذار
ال کت
اقتص اد</w>
اط راف</w>
اح تی
کلی س
کس ب</w>
چو ب</w>
چش مان</w>
پذ یر</w>
نی ستند</w>
ن ج</w>
می‌گوی ند</w>
م گر</w>
م با
ل ‌های</w>
ق بول</w>
ق بلا</w>
ظاه ر</w>
ش مال</w>
ر قاب
ر خ</w>
د نی</w>
جل سه</w>
ته دید</w>
ت کر
به بود</w>
بزر گی</w>
ب لا
ای ان</w>
گر چه</w>
گ م</w>
کر دی</w>
پی ‌
پنج ره</w>
و رو
نمای ش</w>
ن ون</w>
ن ای</w>
مر ح
ق ای
ع قی
سی اه</w>
ست ن</w>
ده ی</w>
د قت</w>
خ طر
ب قی
امیدو ار
امی د</w>
آ د
2 5</w>
کل مه</w>
ک دام</w>
ک ام</w>
ن خواهد</w>
مو ارد</w>
مطال عه</w>
محص ولات</w>
م طرح</w>
راح ت</w>
ر ها</w>
دی دم</w>
د س
خو ن</w>
ج اری</w>
ت ض
باش م</w>
ب چه</w>
ب ند</w>
ب دست</w>
انتق ال</w>
‌ ین</w>
‌ بودم</w>
گی ری
پشت ی
و ا</w>
مرح له</w>
مح دو
مت ع
شاه زاده</w>
را جع</w>
ده یم</w>
خواه ی</w>
ح ت
تحری ک</w>
ب حر
اند کی</w>
آز مای
هی ات</w>
نم اینده</w>
ند گی</w>
ن ه‌ای</w>
ن فت</w>
طر ف
سری ع</w>
س پر
س را
ره بر</w>
رادی و</w>
حق وق
جن بش</w>
تش وی
تر س</w>
با خود</w>
ب اری</w>
اولی ه</w>
ان یه</w>
ان ین</w>
ان ه‌ای</w>
ال له</w>
اض افه</w>
آ بی</w>
گ انه</w>
کم ‌
کشاور زی</w>
وی زی
و لو
هوا پی
نمی‌تو اند</w>
می‌دان ست</w>
مع ل
مع اون</w>
مطم ئن</w>
مرک زی</w>
مث ال</w>
عر ب</w>
ط راحی</w>
شور ای</w>
ش گاه</w>
سو ار</w>
س نگ</w>
ز ود</w>
دو ستان</w>
ده‌ اش</w>
در خت
حت ما</w>
حال یکه</w>
ج ور</w>
تر کی
بگوی م</w>
بچ ه‌ها</w>
بن ا</w>
بقی ه</w>
اه ل</w>
ام ش</w>
احتم الا</w>
یک‌ بار</w>
کر ا
پی چی
پی ر</w>
می‌توان یم</w>
می‌ گرفت</w>
می‌ شدند</w>
مخ در</w>
محکو م</w>
ق ‌
عمل ‌
ع می
طر ح
ط ی
صن دو
ش دید</w>
سی است</w>
س ون</w>
س رو
ز ان
ری ب</w>
ره بران</w>
در آمد</w>
خود ت</w>
ج دی</w>
تع ریف</w>
ب خو
انگ شت
اص لاح
اخت لا
ا تر</w>
آ فری
آ شن
4 0</w>
کی ف
نمی‌توان ست</w>
نمی‌ شود</w>
می‌ دید</w>
مق دار</w>
مد ل</w>
متح د</w>
م ‌ها</w>
م ای</w>
فرص ت</w>
عب دال
صند لی</w>
ص رف
ش بیه</w>
ش ا
ر ده</w>
ر ح
خ نده</w>
حم لات</w>
تا ج
ت هی
بیم اری</w>
بی ل</w>
ای ر</w>
انگ ار</w>
است رات
آمریک ایی</w>
‌ کنندگان</w>
هو ایی</w>
هست ید</w>
نج ات</w>
ن ‌بود</w>
مو اج
مه اج
ما شین</w>
م هر
لحظ ه‌ای</w>
ق ول</w>
ف وریه</w>
شن اسی</w>
شخص ی</w>
سی ن
سازمان ‌های</w>
دی ر</w>
خی ص</w>
خ ل
حسا ب</w>
ح ا
جا دو
بر و</w>
با شید</w>
ب ‌های</w>
اض ی</w>
ار شد</w>
ا دو
ا بو
گرفت ه‌است</w>
گ شت
کرا چی</w>
چیز هایی</w>
پشتی بانی</w>
وی ژ
ول ان</w>
وسی له</w>
ن دی
ن دارم</w>
می‌ کنید</w>
می‌ بر
می ر</w>
قو انین</w>
طول انی</w>
ض د</w>
سکو ت</w>
س ود</w>
دس امبر</w>
خ رو
خ الی</w>
تواف ق</w>
تل ویزی
تق اض
ت نظ
برخ ورد</w>
باز ر
اه دا
انس ان</w>
اقدا مات</w>
اخت یار</w>
ی رات</w>
گ انی</w>
وی ن</w>
نگر ان</w>
مط بو
مدار س</w>
قدی می</w>
ق لب</w>
ف هم
شی ر</w>
سخ ن</w>
ر غم</w>
دمو کر
د شو
خ بری</w>
ح س
جل وی</w>
تش خیص</w>
بود جه</w>
بر ود</w>
بتو اند</w>
با ش</w>
ب توان
است ‌
ار ز
ا خی
گذ ار</w>
کن فران
کرده‌ بودند</w>
ک ف</w>
پیش‌ بینی</w>
ور ود</w>
ور ان</w>
نمای ند</w>
می‌توان ید</w>
می‌توان م</w>
مر ز</w>
مد تی</w>
مح دود</w>
لب اس
فعالی ت‌های</w>
فر دا</w>
فر اموش</w>
ف هر
ض رو
ص رف</w>
رو م</w>
دار ان</w>
ج د</w>
ج ال
تصوی ر</w>
ترا م</w>
تحقی قات</w>
ت ال
بم ب‌
بال اخ
ای ع</w>
او ل
اع ت
اشتبا ه</w>
احس اس
یر ی</w>
گذ شت</w>
چ ال
پار ل
ه مو
نی م
نگ ری
نو عی</w>
ن کرده</w>
ن شی
ن دارند</w>
مو ل
مع نی</w>
مظ نون</w>
مسئ ولان</w>
مب ت
مان ده</w>
لی ن</w>
ل غ
عر بی</w>
ش ار
سی ست
سر باز
ری زی</w>
ره بری</w>
دا ده‌اند</w>
خشو نت</w>
ح کم</w>
بزرگ ‌ترین</w>
برگ شت</w>
برنام ه‌
ببی ند</w>
بالاخ ره</w>
ام د</w>
ام تی
اطلا عاتی</w>
آ ت
گرفت ه‌بود</w>
گذ شت
پز شکی</w>
هم اه
نق طه</w>
می‌ ش
منظ ور
ق ف
عمل‌ کرد</w>
شم ار</w>
سروی س</w>
س ک</w>
س ور
دعو ت</w>
خ ال
جوی ی</w>
ت اسی
ب ایست
این‌ گونه</w>
این تر
ایست اد</w>
اسل ام
اس لام</w>
اس تر
ا ک</w>
ا به</w>
1 8</w>
گفت گو</w>
ک ور
هر چه</w>
نه ایت</w>
موف ق</w>
مو جو
من ی</w>
لب نان</w>
ل ند</w>
قرقی ز</w>
فرا هم</w>
ف را</w>
غ ل
صور تی</w>
ص اح
ش و</w>
روی ش</w>
داشت ه‌است</w>
خیاب ان</w>
خا صی</w>
ج ام</w>
تع جب</w>
بای ست</w>
ب لو
ب دین</w>
او ی</w>
ان دو
افرا دی</w>
آ ست
i n
‌شده‌ و</w>
گ ون</w>
کل مات</w>
کش ی</w>
پرو نده</w>
و ظ
نو شت</w>
نمی‌ شد</w>
ن ور
می‌ گردد</w>
من تش
منتش ر</w>
مق او
مستقی م</w>
مسا فر
مر ت
ما تی</w>
فیل م</w>
فت ی</w>
ف ع</w>
غ رو
ع بار
ظ هر</w>
شم الی</w>
ز مان
ز ح
رو د
ر است
ده‌ شده</w>
خ را
ح اصل</w>
جنو بی</w>
ج وی</w>
تو جه
بی ن
بگوی د</w>
باز گشت</w>
با ب</w>
ب شود</w>
ارای ه</w>
a n
200 1</w>
ی ‌بود</w>
ی ن‌
گ وی</w>
کیف یت</w>
کنفران س</w>
چی ست</w>
چن ان
وح شت</w>
و اب
نو امبر</w>
نمی‌ کنم</w>
نا می
ملا قات</w>
مسا ب
مرا ق
قط ع</w>
علا قه</w>
عقی ده</w>
عجی ب</w>
صندو ق</w>
ص ر</w>
سای ه</w>
را س</w>
ر ژ
د استان</w>
تو صی
تلف ن</w>
تح مل</w>
تجر به</w>
ت خت</w>
بی ش‌
بی ا</w>
بو دیم</w>
برخ ور
اس تا
1 00</w>
ی ور
گرو ه‌های</w>
چش مان
پدر ش</w>
وح شت
وا کن
نی ستم</w>
نظ ارت</w>
ن زد</w>
مو سی
مسا ئل</w>
مح کم</w>
م من
لی پ</w>
ل ن
فع ال</w>
عم ر</w>
ص یل</w>
ستی زه‌
س و</w>
ز ات</w>
رو ف</w>
رو ح</w>
دو شی
در مان</w>
خواست ار</w>
با شیم</w>
ب ن</w>
ب س
انگی ز</w>
انفج ار</w>
اسی ون</w>
آ میز</w>
گر ه</w>
پیشر فت</w>
پو شی
پو شش</w>
پرو از</w>
ه شت</w>
ه ش
ه ایش</w>
نمی‌ کرد</w>
نمای ندگان</w>
نزدی کی</w>
می‌ دهم</w>
من دان</w>
فلسط ین</w>
ف ر</w>
ف انی</w>
س م
دوشی زه</w>
داخ له</w>
خصو ص
ح ذ
تهی ه</w>
تما ل</w>
تشوی ق</w>
تر ‌بود</w>
تح لیل</w>
ت ز
به ش</w>
بع نوان</w>
ب ل</w>
ب ده</w>
ای ر
اس اسی</w>
اخی را</w>
اح تمال</w>
2 2</w>
کار کنان</w>
ک رو
پ را
پ اری
هر می
ه فت</w>
نمی‌ کند</w>
ن ند</w>
من و</w>
معمو لا</w>
مع لوم</w>
مسئو لیت</w>
مذاکر ات</w>
مجمو عه</w>
لا س</w>
ف ض
ف درا
فدرا ل</w>
ع بور</w>
شک ر</w>
ش غ
زی ب
ز ل</w>
رس اند</w>
دیو ار</w>
دو ل</w>
ده ید</w>
د چار</w>
خود شان</w>
خو ش‌
خو اب
خ م</w>
حم ل</w>
تکر ار</w>
تروری ستی</w>
بر گر
ب دی</w>
ال ات</w>
2 8</w>
1 7</w>
چ ندان</w>
پخ تون
هرمی ون</w>
نمی‌دان م</w>
ن کرد</w>
می‌ کشید</w>
مست قل</w>
محی ط</w>
متو قف</w>
مادر ش</w>
فر ض</w>
ع امل</w>
ع اش
ض عی
شی ط
ساخت مان</w>
زمی نی</w>
رو زه</w>
رسان ه‌های</w>
را هی</w>
ر ار</w>
ده ان</w>
دبی ر</w>
خور ده</w>
بو ی</w>
بو ده‌اند</w>
بش ر</w>
بز ند</w>
برنام ه‌های</w>
بر ادر</w>
ب دن</w>
اع مال</w>
اح ترام</w>
آم ده‌بود</w>
ی ف</w>
گست رش</w>
ک یت</w>
پرو ژ
پختون خوا</w>
نف و
ن کت
ن شده‌
ن توان
می‌ پر
منا فع</w>
من بع</w>
مطم ئ
مر اسم</w>
مب نی</w>
ل و</w>
ق وی</w>
ق د
غر بی</w>
غ ال
رو ح
ده نده</w>
دنی ای</w>
خوان دن</w>
خد مت</w>
توجه ی</w>
بر سد</w>
ب بر
افز و
اخت ص
اب ق</w>
ا ع</w>
آن گاه</w>
آ می
گفت ه‌است</w>
ژ ن
چ پ</w>
پا ک</w>
و ام</w>
ن شد</w>
ن تی</w>
می‌گوی م</w>
می‌ سازد</w>
مسا بقه</w>
مج دد</w>
متف اوت</w>
مان ع</w>
م ر</w>
قاع ده</w>
ق سمت</w>
ق تل</w>
ف صل</w>
صد ایی</w>
ص ه</w>
شنا س</w>
ش لو
سرمای ه</w>
سخ تی</w>
سال ‌های</w>
ساخت ه</w>
زو دتر</w>
زح مت</w>
رو سی</w>
رسی دن</w>
خوش حال</w>
خار جه</w>
جمع ه</w>
تح صیل</w>
ت خص
بل ند
برو م</w>
بد هم</w>
ای مان</w>
او ه</w>
ام ‌های</w>
ام ضا</w>
افغ ان</w>
اص لاح</w>
از سر</w>
اح مد</w>
آست انه</w>
آ فت
200 9</w>
گ مان</w>
کار ه‌ای</w>
کار ها</w>
پو ست</w>
وی ش</w>
ورو دی</w>
نی ا</w>
نشست ه‌بود</w>
می‌ تر
مع ام
مر تب
مخ فی</w>
محافظ ت</w>
لی ه</w>
لذ ت</w>
ق هر
شناس ایی</w>
شر ح</w>
سی نه</w>
سا کت</w>
س لو
ری است‌
ذ کر</w>
دی گه</w>
دور ان</w>
خ برگزاری</w>
خ ار</w>
حذ ف</w>
ح فا
جذ ب</w>
ج ور
بی ت</w>
ای د
اهدا ف</w>
افت اده</w>
اسلام ‌آباد</w>
ار سال</w>
1 6</w>
گر ایی</w>
کلا س</w>
کار ان</w>
ک ‌تر</w>
پ ل</w>
و ز
و اس
ناراح ت</w>
می‌ خور
موسی قی</w>
معر فی</w>
مش ار
مساب قات</w>
مر ده</w>
مث بت</w>
ف س
عزی زم</w>
ع ال
صور تش</w>
سا کنان</w>
سا حل</w>
س نگی</w>
ریاست‌ جمهوری</w>
رو ش‌های</w>
دو ی
دل ش</w>
دست ور
در هم</w>
در د
د ایی</w>
خت ند</w>
خبر نگ
خا ک</w>
خ شم</w>
ج ‌
ج نا
ت پ
با شی</w>
ان ت</w>
الکت رو
ادو ارد</w>
اخ لا
ا ص</w>
آور دن</w>
آ ل</w>
e r
2 4</w>
‌آ وری</w>
گذا شته</w>
گ ار</w>
کمی سیون</w>
کال س
کات رین</w>
ک تی</w>
پن هان</w>
پاری س</w>
پ دید</w>
ه زار
ن ژ
ن ز</w>
ن ح
می‌ دادند</w>
می‌ آور
موض و
من ف
مرتب ط</w>
مخال ف</w>
ما ده</w>
لن دن</w>
ل ان
ع ین</w>
صن عت</w>
صف حه</w>
شاه د</w>
سرباز ان</w>
س فی
را حتی</w>
ر نگ
ذ هن</w>
ده‌ بودم</w>
دست ی</w>
ح یر
ث ار</w>
تس لیم</w>
تار یکی</w>
بی دار</w>
بو دی</w>
بلا فاصله</w>
بر ایم</w>
بد ان</w>
بحر ان</w>
با شه</w>
ب طور</w>
این ک</w>
ای ده</w>
انج من</w>
ان تح
اق ای</w>
اطلا ع</w>
اس ف
ار ها</w>
ا وی
ا ورد</w>
گرو هی</w>
کشی ده</w>
کار گران</w>
ژ اپ
چیز های</w>
ه انی</w>
ن ه‌
می‌ گیرند</w>
می‌ شه</w>
می‌ بایست</w>
مواف قت</w>
مهم ی</w>
منط قه‌ای</w>
مقاو مت</w>
مع تق
مص رف</w>
مش ابه</w>
ما ج
ق ه‌
فی لیپ</w>
فو ت
فوت بال</w>
فهر ست</w>
ف ان</w>
علی ‌
عظ یم</w>
ع ادی</w>
شی و
ش گفت
ش ادی</w>
سب ز</w>
زو دی</w>
ر نج</w>
ر ض
دست ه</w>
دست رسی</w>
دا مبل
حو زه</w>
حفا ظ
ث بت</w>
تاسی س</w>
بیمار ستان</w>
بهر ه‌
بر دن</w>
بال اتر</w>
ب ‌ها</w>
او ش</w>
انس انی</w>
انتح اری</w>
ام ‌
افرا ط‌
آمو زشی</w>
2 1</w>
گفت ه‌بود</w>
گری ه</w>
کن ت</w>
کلی د</w>
ژو ئ
ژوئ یه</w>
نی وز</w>
نگر انی</w>
نوی س
می‌ نمود</w>
می‌ خواهند</w>
موق عیت</w>
مه ند
ل ای</w>
قی ب</w>
فر انس
ف ات</w>
طر ز</w>
ضر به</w>
سر م</w>
سر د</w>
سخ نان</w>
س از</w>
رقاب ت</w>
رفت م</w>
داشت ی</w>
دا ل</w>
ح اد
حاد ث
ج دول</w>
ت ند</w>
بی شک
برگ شت
ب پردا
ب و</w>
ال قاعده</w>
از ده</w>
اتا ق
آور ده</w>
گیر م</w>
گرد اند</w>
کو ه</w>
کش ن
ک ه
و جو
هم چون</w>
نه اد</w>
نظ ر
نس خ
می‌د اند</w>
می‌ کشد</w>
مواج ه</w>
مسئ ول</w>
م ود</w>
قی افه</w>
ق د</w>
ف ار
ط بقه</w>
ض من</w>
شه رو
ش ون</w>
ش ای
سر انجام</w>
س ه
دامبل دور</w>
خن دید</w>
خ اموش</w>
ج دیدی</w>
ث ابت</w>
تغی یرات</w>
تع دادی</w>
تصوی ب</w>
تص اد
تاج یک</w>
ت س</w>
بیشک ک</w>
بر داشت</w>
بر ادر
بخ ش‌های</w>
بایست ی</w>
ب نی
الکترو نی
افت خار</w>
اف ظ</w>
اتح اد</w>
ا ‌بود</w>
آر امی</w>
آر امش</w>
آ ری</w>
6 0</w>
گو ش
گا ه‌ها</w>
گ ین</w>
کوچ کی</w>
کرده‌ ام</w>
ک ه‌
ک ست
چ را
پی ن</w>
پر س
پای ه</w>
وا حد</w>
و سای
ه نر
نکت ه</w>
نش سته</w>
نا ه</w>
ن می
می‌ کنه</w>
مشار کت</w>
مح ق
قبی له‌ای</w>
فهمی د</w>
فران ک</w>
ع ید</w>
صن عتی</w>
شنی د</w>
سال ن</w>
روز ه‌ای</w>
رود خانه</w>
راس تی</w>
را ک</w>
دن ش</w>
دل م</w>
دری ا</w>
درخت ان</w>
حقوق ‌
جزی ره</w>
ج رم</w>
تق ویت</w>
ت با
بی اید</w>
ب تی</w>
ای ا</w>
انگ لی
اف کار</w>
است ع
اخ بار</w>
ا چ
آمو زان</w>
آس مان</w>
آ گاه</w>
200 0</w>
2 6</w>
. 5</w>
‌ال ع
ژن را
چیز ها</w>
پخ ش</w>
واکن ش</w>
واق عیت</w>
و ح</w>
و جه</w>
هر چند</w>
ه ند</w>
نا شی</w>
ن داشته</w>
می‌خواست م</w>
می‌ کو
می‌ زند</w>
می دان</w>
مق اله</w>
مغ ز</w>
م کان</w>
م خا
ف وق
ف ضای</w>
ع ه‌ای</w>
ساخت ار</w>
س هام</w>
س ف</w>
زی م</w>
زی با</w>
ز ه‌های</w>
ز مز
رو س
د ند
د ای
خان ه‌های</w>
حی ات</w>
حرف ه‌ای</w>
تلا ش‌های</w>
تر جی
بی ر</w>
بی د</w>
بی انیه</w>
ب ست</w>
این ‌ها</w>
ان قلا
ار ات</w>
اتفا قی</w>
ابر از</w>
آ ی</w>
‌ داری</w>
گذار ان</w>
گ اری</w>
کش ف</w>
ک ابل</w>
ژ ان</w>
پی روزی</w>
و ش</w>
هنگ ی</w>
نگری ست</w>
نم ایی</w>
نفو ذ</w>
نش انه</w>
من تق
مق اب
مح ض</w>
مج از
مت خص
مالی ات</w>
ق بال</w>
فو را</w>
فرست ا
ف نی</w>
ف ش</w>
غر ق</w>
غر ب</w>
غذ ایی</w>
ع کس
ظاه را</w>
ط و
ص بر</w>
ش ام</w>
سی ‌ان</w>
سی ل</w>
سل ط
س خت
س ایت</w>
را م</w>
ر اند</w>
دش من</w>
خط و
خان ه‌ها</w>
خ ری
جل ب</w>
ج شن</w>
ث بات</w>
توان ایی</w>
تا کنون</w>
ت ‌بود</w>
ت یک</w>
ت مرکز</w>
بیم ار</w>
بر داری</w>
ب گو</w>
ب دان
ال ف</w>
ار دو
ا وا
ا ظ</w>
ا شک
آم دند</w>
آق ا</w>
آ و
2 9</w>
ی ابی</w>
گو شت</w>
گفت ن</w>
کلیس ا</w>
ک ز</w>
ژاپ ن</w>
وس ط</w>
و ت</w>
ه‌ شده‌
هن ر</w>
هم ان
هست ه‌ای</w>
نق شه</w>
نا ل</w>
ن اه
مط لب</w>
مش ه
مام ور</w>
لح اظ</w>
ل ش</w>
قر بان
ق هو
فرمان ده</w>
ف ن‌
ف شر
غ ی</w>
عص ر</w>
عزی ز</w>
ع اق
شنا خت
ش اخ
سی است
سر ان</w>
سخ نر
ساخت ن</w>
ر دی
ده ه</w>
دست‌ کم</w>
در گیری</w>
ح اک
تو ان</w>
تح صی
تح ت‌
ت کمی
ت ک</w>
ت نا
بم ب</w>
برنامه‌ ریزی</w>
برخ است</w>
بر ویم</w>
باز رسی</w>
انت شار</w>
ان م</w>
اف سر</w>
اظ هار
اد ا</w>
ابت دا</w>
ا تص
‌ه ایم</w>
گ لوله</w>
کم ه</w>
کل اید</w>
کشور ها</w>
ک ‌بود</w>
ک شت</w>
ژ ن</w>
پی ا
پارل مان</w>
واب سته</w>
ه‌ بودم</w>
هم ه‌
نمی‌توان م</w>
ن شود</w>
می‌ رفتند</w>
می ر
موس سات</w>
لا ل</w>
قر مز</w>
ضرو ری</w>
ص دا
سر باز</w>
سا ده</w>
س نت</w>
ری ه</w>
ده ایی</w>
دری ایی</w>
خو یش</w>
ح ص
ح دی</w>
ح ج
جو انی</w>
جنگ ل</w>
تک یه</w>
تما س</w>
تلویزی ون</w>
تج هی
بی ای
بزرگ ‌تر</w>
ب ک</w>
او قات</w>
او ض
اند از</w>
ازب ک</w>
اد ل</w>
احساس ات</w>
آم دن</w>
آفت اب</w>
آ هن</w>
200 8</w>
2 3</w>
‌ ام</w>
ی کشن
گ ش
کام پیو
ک ات</w>
پو لی</w>
پ ه
ور ت</w>
وا ک
ه‌ه ایش</w>
هش دار</w>
هست ی</w>
نمو نه</w>
نمو دند</w>
نص ب</w>
نش ان‌
ن شده‌است</w>
ن ان
می‌ یابد</w>
می‌ افت
من د
مص اح
مرد می</w>
مت اسف
ما س</w>
م لاح
م ض
م ری
لا ک</w>
ل یک</w>
ل ه‌
ل اه
قای ق</w>
ق اضی</w>
فع لی</w>
فرو ش
ص ادر</w>
ش‌ یافته</w>
شی خ</w>
شنی دن</w>
سا ع
س لام</w>
زند گی
زمز مه</w>
روز نام
ر ز</w>
خ شم
خ دا
حادث ه</w>
ح وا
ح مل
ح سین</w>
ث رو
تان یا</w>
ت ظاه
بر ان
بده ید</w>
ب ه‌ای</w>
انگ ل
امتی از</w>
اختص اص</w>
آم ار</w>
آ سو
c n
a r
19 8
کن ن
کار ش</w>
چشمان ش</w>
چار چوب</w>
چ اره</w>
پر س</w>
وظ ی
ه‌ دار</w>
هو ای</w>
ن هایی</w>
می‌توان ستم</w>
می‌ کش
من ه</w>
من فی</w>
من دی</w>
مم کن
مط ل
مط ابق</w>
مش خص
مح بو
م توسط</w>
ل ه
ل ان</w>
قرار داد</w>
قر اری</w>
غ ری
عملی اتی</w>
عاد ت</w>
ع ط
ع ده</w>
ض ه</w>
شو هر</w>
شهرو ندان</w>
شنا خته</w>
شر ق</w>
ش نگ
ست ون</w>
س گ</w>
س فر
ز لی</w>
ز ای</w>
رو س</w>
رسی دند</w>
راه‌ اندازی</w>
ر ع
ر ب
دی روز</w>
دو مین</w>
دست گاه</w>
درو غ</w>
خور دن</w>
خت ه‌بود</w>
حی وان
حقوق‌ بشر</w>
تع ه
تب لی
ت کن
ت خت
به داشت</w>
بم اند</w>
باز سازی</w>
باز دید</w>
با غ</w>
با با</w>
ب کار</w>
ایست گاه</w>
ای ف</w>
اه ش</w>
انی ان</w>
ان ‌بود</w>
اص ول</w>
ارتبا ط
ا گرچه</w>
آل مان</w>
آر ز
آ گ
آ لو
آ ثار</w>
20 10</w>
1 9</w>
‌ه ایشان</w>
گست رده</w>
گر دند</w>
گ مر
کو ب</w>
ک وی
ک ث
پی چ
پ ست</w>
وسای ل</w>
هم گی</w>
هم سر</w>
هد ایت</w>
ن کند</w>
می‌دان ند</w>
می‌دان م</w>
مع لو
مطبو عاتی</w>
مشت ری</w>
محص ول</w>
مان ده‌بود</w>
مال ک</w>
ما دام</w>
م ار</w>
لح ن</w>
ل به</w>
قض یه</w>
فی ق</w>
فر هنگ</w>
فر مان</w>
ع مر
ع ذ
صح نه</w>
ص ف</w>
شن ود</w>
ش نو
ش ای</w>
سو د
سر خ</w>
ز م
رژ یم</w>
را ضی</w>
دی ه</w>
خواه ش</w>
حل قه</w>
حال تی</w>
ج س
ج دا
تکمی ل</w>
تو نی</w>
تو قف</w>
تح لی
بگذ ارد</w>
بع دا</w>
بر گ</w>
ب گیرند</w>
ب کشد</w>
ب ن‌
او ن
انگل ستان</w>
ام تح
الی ز
اع تق
اب ند</w>
آن قدر</w>
آ ور</w>
o r
20 11</w>
یافت ن</w>
گرد ش
گر دان</w>
گ ار
کیلو گرم</w>
چ س
پیر مرد</w>
پاک ستانی</w>
هم سرش</w>
ه ت</w>
نیم ه‌
نو ار</w>
نظ ا
نا پدید</w>
ن شین</w>
ن بوده</w>
می‌گذ ارد</w>
می‌بی نم</w>
می‌ پردا
مو ف</w>
منف جر</w>
ملاح ظ
معمو ل</w>
مح سو
مجمو ع</w>
م ه‌ای</w>
م قی
م تری</w>
لبخ ندی</w>
قی مت
ق اه
قاه ره</w>
غ ال</w>
عم لی</w>
عل م</w>
ط لا</w>
سال ‌ها</w>
سال م</w>
س ‌های</w>
س ل</w>
س قف</w>
زن ش</w>
رق ص</w>
رفت ه‌بود</w>
ر ک
ر ست
ذ ه
ده‌ ایم</w>
خواه ان</w>
خطو ط</w>
خصوص ا</w>
خ یر
خ ست
حیوان ات</w>
حفاظ ت</w>
جمع ی</w>
جای گزی
ج ین</w>
تو زی
تق سیم</w>
تحت‌ تاثیر</w>
بر م</w>
بای ف</w>
ای ‌
اوض اع</w>
او ست</w>
انتق اد</w>
امیدوار م</w>
افز ار</w>
استرات ژ
اری ‌های</w>
آشن ا</w>
آسی ا</w>
2 7</w>
1 8
گ ور
کالس که</w>
ک ور</w>
ک مال</w>
چهار شنبه</w>
چ ا
و لی
هی جان</w>
هزی نه‌های</w>
نیاز مند</w>
نی ‌ها</w>
نو شته</w>
نو از
می‌ لر
میلی و
می ز
مو های</w>
معمو لی</w>
مح و
م هم‌
م اهی</w>
لذ ا</w>
فکر ی</w>
عو دی</w>
علی‌ رغم</w>
عر ض</w>
صد ایش</w>
شی وه</w>
شب ک
ش ‌هایی</w>
ش ور</w>
سری ع
سخنر انی</w>
سب ب</w>
دی ده‌بود</w>
دشو ار</w>
د رویش</w>
خود مان</w>
خد مت
خ س
ح دس</w>
ج عه</w>
ج اب
توصی ف</w>
تنظ یم</w>
تع طی
تر ز</w>
تار یک</w>
تا ش
ت ست</w>
بو سی
بست گی</w>
بر دی</w>
بان ک‌ها</w>
ب ‌بود</w>
ب کش
ب ت‌
ای ای</w>
اندی شه</w>
ام سال</w>
افتا ده‌بود</w>
استان دارد</w>
است انی</w>
اس لح
اتو م
آم ده‌است</w>
آت ش‌
l e
200 3</w>
200 2</w>
‌ گیری</w>
گ را
کم بود</w>
ژنرا ل</w>
پرو فس
پروفس ور</w>
پر سی
پذیر ی</w>
پ ایی</w>
پ ارت
ول و</w>
هو م</w>
هن ش</w>
هن ری</w>
نیاز های</w>
نمی‌ خواست</w>
نمای ندگی</w>
نظ م</w>
می‌ نماید</w>
می‌ خورد</w>
موق عی</w>
مو ثر</w>
مقاب له</w>
مذاکر ه</w>
لی ‌
لی و
لی بی</w>
قرار ‌بود</w>
ق وی
فلسط ینی</w>
فر دی</w>
ف ور
غیر قانونی</w>
عو امل</w>
عاش ق</w>
ع لوم</w>
ط لب</w>
ط را
صن ایع</w>
شو هر
ش کر
سیست م‌های</w>
سو خت</w>
سنگ ین</w>
سل امت</w>
س لاح</w>
رو شن
دل ‌
دانش جویان</w>
داشت یم</w>
دا ده‌های</w>
د ز
خور شید</w>
خو ابی
خ و</w>
خ سته</w>
جمع ‌آوری</w>
ج نگی</w>
ج ع
ج است</w>
ترکی ب</w>
ترجی ح</w>
تر ه</w>
تح ویل</w>
تاش کند</w>
ت یره</w>
ت یر</w>
بی ک</w>
بی انی
بل ندی</w>
بع دا
ام ه</w>
ام ن</w>
ال ت</w>
اعترا ض</w>
اعت بار</w>
اض طر
ارتبا طی</w>
ات ‌های</w>
ات خا
آن ‌بود</w>
آ گاهی</w>
آ ک
i c
ی و</w>
ی ات</w>
گرفت ه‌اند</w>
گرفت م</w>
کن ونی</w>
کر ه</w>
کا غ
کاغ ذ</w>
پیچی ده</w>
پیو سته</w>
پن به</w>
پروژ ه‌های</w>
وار دات</w>
و ار</w>
هزار ان</w>
نظا میان</w>
نظ رم</w>
نظ ام</w>
ن برد</w>
می‌ز نم</w>
می‌دان ید</w>
موق عی
من اس
مق دس</w>
معر ض</w>
مس ایل</w>
مح اس
مان ان</w>
مار یا</w>
م سی</w>
م ارت
مارت ین</w>
قدر ی</w>
قب لی</w>
فن‌ آوری</w>
فر هنگی</w>
عال م</w>
ظ رف
ط ب
صرف ا</w>
ص اف</w>
شک ست
ش ر</w>
سی ر</w>
سا د</w>
ز نگ</w>
ز ر
ز اب</w>
ری م</w>
ری سک</w>
رسی ده‌است</w>
ذ خیره</w>
دقی ق</w>
در و</w>
در جه</w>
دان ش‌
خو اند</w>
خرو جی</w>
ج ست</w>
تی ‌
تن هایی</w>
تض مین</w>
تصمی م‌
تس هی
تر دید</w>
ت ند
ت مه</w>
بعدا ز
بری تانیا</w>
بر می‌
بتوان ند</w>
ب غ
ای ت
اک ثر</w>
اوا خر</w>
الکترونی کی</w>
افز ای
اضطر اری</w>
استان دار
اختلا ف</w>
اح زاب</w>
e n
7 0</w>
یکشن به</w>
گی ‌های</w>
گو شه</w>
گر دن</w>
گر دان
گ ند</w>
کری کت</w>
ک ثر</w>
ک الی
چ ه‌
پی‌ یر</w>
پی ام</w>
پن اه
پار چه</w>
ولو ژی</w>
وق وع</w>
و زیر
نگ ذ
نمی‌تو ان</w>
نظ یر</w>
نش ان
نس ل</w>
ند ا</w>
نا پذیر</w>
نا د</w>
ن قر
ن ر</w>
ن باشد</w>
ن ال
می‌ شوم</w>
می تی</w>
منتق ل</w>
ممکن ‌بود</w>
مشک لی</w>
مشت ریان</w>
مراق بت</w>
مجاز ات</w>
ما شی
ل د</w>
قط ار</w>
ق لب
علا ق
ع ج
طرح ‌های</w>
ضعی ف</w>
صور ت‌
شغ ل</w>
شرکت ‌ها</w>
ش ری
سر زمین</w>
ساز ند</w>
زند انی</w>
رض ایت</w>
ر ت
دری افت
دبی ر
خو اه</w>
خو ان</w>
حدا کثر</w>
ح کو
ح افظ
جو ان
تیر اندازی</w>
تولی د
تو ف</w>
تص اوی
بمب‌ گذاری</w>
بر می</w>
بخ اری</w>
باز ارهای</w>
با قی
ایستا ده‌بود</w>
ام ان</w>
اعتق اد</w>
اصلاح ات</w>
اش خاص</w>
اس تی</w>
ار تق
اتص ال</w>
اب زار</w>
آمو ز
آش کار</w>
آز اد
آ وی
آ ب‌
گی ل
گرد ش</w>
کو ف</w>
کن ج
کشی دن</w>
کار لت</w>
کار خانه</w>
چنان که</w>
پ رید</w>
ور ز
و ای</w>
و انی</w>
نسخ ه</w>
نخ ست</w>
ناگ هانی</w>
ن کنید</w>
ن داشتند</w>
ن داشتم</w>
می‌ گفتند</w>
می لی</w>
مو ج</w>
مهم‌ ترین</w>
مل ت</w>
مف ید</w>
مع نای</w>
مدی ران</w>
م کان
م ایی</w>
لاه ور</w>
قابل‌ توجهی</w>
ق ص
ق ال
فق ر</w>
فر ود</w>
شنی ده</w>
شنی دم</w>
ش ند</w>
ش انه</w>
سی ‌
سو الی</w>
سو ات</w>
ست ‌ها</w>
سال انه</w>
زی ست</w>
ز ا
ری است</w>
روی ترز</w>
رفت ه‌است</w>
رسی ده</w>
ر های</w>
ر سو
ر س</w>
ده ندگان</w>
د ای</w>
خوش حال
خر ج</w>
خد ای</w>
جان ب</w>
ث ی</w>
تع قیب</w>
تجهی زات</w>
بی ‌ه
بر یم</w>
بر قراری</w>
بر ده</w>
بر انگی
ب ذ
ب دم</w>
اینتر نت</w>
او م
انی ‌ها</w>
ام شب</w>
ال ‌های</w>
اط را
اص رار</w>
اس کارلت</w>
ار ه‌
ار م</w>
a t
a l
200 7</w>
‌الع اده</w>
گر گ</w>
گ ان
کی ف</w>
کن ن</w>
کشت ند</w>
کرده‌ بودم</w>
ک اش</w>
پ اه
وال دین</w>
و ط
ه شت
ه است</w>
نی و
نه ا
نمی‌دان ست</w>
نظ رش</w>
ناراح تی</w>
ن ه‌ها</w>
ن داریم</w>
ن تون</w>
می‌ روند</w>
مو ر</w>
منظور م</w>
مرت ب</w>
محو طه</w>
مح ا
مث لا</w>
مام وران</w>
م قر
م تص
م اری</w>
لو ب</w>
لا تی</w>
قو ه</w>
قو می</w>
قربان یان</w>
ق س
ق اچ
فرص ت‌های</w>
ف وری</w>
ف ال</w>
عل می</w>
سط وح</w>
سرمایه‌ گذاران</w>
س قو
دی دند</w>
دو تا</w>
دن بال
دموکر ات
دستور ال
دست گیری</w>
در گیر</w>
در ستی</w>
دا ئ
خطر ناک</w>
خ ‌
حوا د
ح ین</w>
جی غ</w>
جز ئی
تری سی</w>
ت بع
بیش‌ ترین</w>
بی چاره</w>
بهر ه</w>
بز نم</w>
برخور دار</w>
بر نده</w>
بد ل</w>
بد تر</w>
بار ها</w>
ب خت</w>
او تی</w>
انگلی سی</w>
انس کی</w>
اندی شید</w>
ام ون</w>
اس ف</w>
ارتباط ات</w>
ابو س</w>
ا چه</w>
ا خ</w>
آسی ب</w>
آزمای ش</w>
آ ری
‌آ میز</w>
ی‌ اش</w>
یاد داشت</w>
ی هو
کلیس ای</w>
کلی ف</w>
کشی ش</w>
کار گر</w>
ک ‌ترین</w>
چهر ه‌اش</w>
چشم ‌
چ ند
پیا ده‌
پنج اب</w>
پز شک
پ ژو
ور زش</w>
همو اره</w>
هماه نگی</w>
نگه داری</w>
نم ای</w>
ن س</w>
می‌ گذار
موس سه</w>
من ا</w>
مسل ح</w>
مس جد</w>
مر ی</w>
مر گ
مخال فت</w>
مج بور
مبت لا</w>
م ک</w>
م پ
م س</w>
م خصوص</w>
ل شکر</w>
فا ش</w>
غ ام</w>
عج له</w>
عبار ت</w>
صاح ب</w>
شک ار
سقو ط</w>
س عودی</w>
زیب ایی</w>
ز ت</w>
ری ح</w>
رس انی</w>
رح مان</w>
ر شته</w>
ر ایی</w>
دی و</w>
دو ید</w>
دو ازده</w>
دست یابی</w>
د انی</w>
خط اب</w>
خا کست
خ داو
حرف ‌های</w>
ح اوی</w>
ح افظ</w>
جی ب</w>
جایگزی ن</w>
ج سته</w>
تو انی</w>
تقاض ای</w>
ترک یه</w>
تبا دل</w>
تا م</w>
تا خیر</w>
ت دری
بی اور
بران ابوس</w>
بر ه</w>
باز داشت</w>
بار ان</w>
ب گی
ایست اده</w>
ال ز
ار ه‌ای</w>
اتخا ذ</w>
آغ وش</w>
آرا گون</w>
آ ب
20 0</w>
یو سف</w>
گ وری
گ ن</w>
گ شو
گ ام</w>
کو چه</w>
کلی دی</w>
کشت ن</w>
ژان س</w>
چی نی</w>
چشم ش</w>
چ ای</w>
پزشک ان</w>
پر ست
پخ تون</w>
پ اد
وزیر ستان</w>
هو ش</w>
همی ن‌
نو شی
نمی‌توان ستم</w>
نمی‌ دو
نر م‌
ند د</w>
نا کی</w>
نا ظ
ن کرده‌بود</w>
می‌ دارد</w>
موضو عات</w>
مواف ق
مو ند</w>
من زل</w>
مق داری</w>
مرا کز</w>
محسو ب</w>
مح بت</w>
مج د
مای ه</w>
م م</w>
م تی</w>
لباس ‌های</w>
لای ه</w>
قط عا</w>
ق اتی</w>
ف در
غذ ای</w>
عمی ق</w>
عب دا
ع الی
ظرف یت</w>
صف ح
صح ی
ش ویی</w>
سن تی</w>
سف یر</w>
ست یم</w>
س لاح
زار های</w>
ز دم</w>
روز ها</w>
راه نمایی</w>
ر از</w>
دی پل
دل اری</w>
دف عه</w>
دری اچه</w>
در آم
دختر ان</w>
د لی
خود تان</w>
خواه رش</w>
خواه ر</w>
خو نه</w>
خو ن
خلا صه</w>
خبرنگ اران</w>
خ لی
حر فی</w>
ح سن</w>
جای گاه</w>
ج سد</w>
ج رات</w>
توان ست</w>
ته دی
تنظ ی
تم ند</w>
تخ ریب</w>
تاری خی</w>
بگذار ید</w>
بعداز ظهر</w>
برو ند</w>
بر قرار</w>
ب پر
ب بین</w>
ب اما</w>
اید ز</w>
او ‌بود</w>
انقلا ب</w>
اندا زه‌
ان ح
امتح ان</w>
ام کان
افراط‌ گرایی</w>
اعترا ف</w>
اط فال</w>
اش ک</w>
استرات ژی</w>
است ث
اری ‌ها</w>
اح مق
آن‌ جا</w>
آس ان</w>
s t
5 00</w>
گرفت ار</w>
گذاشت ند</w>
گ ال
کن گره</w>
کن ده</w>
کلا ه</w>
کل اس
کرده‌ ایم</w>
کر دید</w>
کان ال</w>
ک ف
پیشنه ادی</w>
پذیر فت
پای ین‌
وظی فه</w>
وا شنگ
وا ح
و دی</w>
ه ل</w>
نی ک</w>
نی ت</w>
نگ ا
نویس نده</w>
نو ز
می‌ یافت</w>
می‌ گذاشت</w>
می‌ نگریست</w>
می‌ روم</w>
می ل
مه ارت
منط قی</w>
ممن و
مق د
مطال عات</w>
مشه ور</w>
مش رو
مختل فی</w>
محدو دی
مجد دا</w>
مت عل
متعل ق</w>
مان ‌های</w>
م گی</w>
م رو
م اری
لط فا</w>
قلا ل</w>
فل ج‌
غرو ب</w>
عبدال له</w>
ع ه‌
ضر ب</w>
صد ها</w>
ص و
شم اره</w>
شت ی</w>
سر هنگ</w>
سا کن</w>
زی ن</w>
ز ده‌بود</w>
رسی دگی</w>
رسی ده‌بود</w>
ران نده</w>
را تی</w>
دست رس</w>
در خت</w>
دانش‌ آمو
خی ل</w>
خواست ه</w>
خو ی
خت ن</w>
خ ره</w>
حیر ت</w>
جن سی</w>
جن ب
جزئی ات</w>
جان به</w>
ث بت‌
تا ز
ت کنی
ت مایل</w>
ت ز</w>
ت دا
بین دا
به ه</w>
بر جسته</w>
بده ی</w>
بخ تی</w>
باش گاه</w>
با تی</w>
ب کنم</w>
ب دهند</w>
این ها</w>
ان ه‌
الیز ابت</w>
اع تن
اص ط
است قلال</w>
احتم الی</w>
اج رایی</w>
ائ تلا
ا ذ
ئ و</w>
r o
r e
i t
cn n</w>
200 6</w>
ی ار
گو نه‌ای</w>
کوچ ولو</w>
کو ل</w>
کتاب ‌های</w>
کت ور
ک مر
چهار م</w>
پنج ر
پذیر ش</w>
پ هل
پ س
پ ایش</w>
پ ال
ور زشی</w>
وا ض
هر گونه</w>
نی مه</w>
نی ازی</w>
نمی‌ کنند</w>
نمای شگاه</w>
نمای ش
نق اط</w>
نفر ت</w>
ند ‌بود</w>
نا شناس</w>
نا ز
ن ک</w>
می‌ز دند</w>
می‌بی نید</w>
می‌ کردیم</w>
می‌ خواهید</w>
موض ع</w>
موجو دات</w>
مق ادی
مسل مانان</w>
مسل مان</w>
محا کمه</w>
مت ن</w>
ما تیک</w>
م کر
م ع</w>
لای حه</w>
ل نگ
ل ع
ق اط
فلج‌ اطفال</w>
فر زند
غ ر</w>
عر بست
عربست ان‌
ع ک
ظ رف</w>
ص ادر
شی ر
شی ان</w>
شو اه
ش ف
ش با
ش اد
سه‌ شنبه</w>
سر ت</w>
س نج
زند انیان</w>
ز دند</w>
روس ای</w>
رو برو</w>
ردی ف</w>
راح ل</w>
را ج</w>
ر م
ر فیق</w>
دیو انه</w>
درخ شان</w>
دختر ش</w>
داو م</w>
دان شک
خان ه‌ای</w>
حا کی</w>
ح ضر
ج ک</w>
ج ری
تف اوت</w>
تصاوی ر</w>
تبلی غ
ت ای</w>
بیانی ه‌ای</w>
بگی رید</w>
بوسی له</w>
به‌ وسیله</w>
به ت</w>
بر ف</w>
بح ث
بازر گانی</w>
ب خاطر</w>
اه میتی</w>
ان‌ تر</w>
انج ام
انت های</w>
امیدو ار</w>
ام ت
اشت ی
استا د</w>
اخلا قی</w>
احتی اج</w>
ا چ</w>
c o
. 2</w>
‌ه است</w>
ی اری</w>
گفت ی</w>
گرو ه
گردش گری</w>
گ ‌ها</w>
گ ناه</w>
گ را</w>
کی ل</w>
کو ت
که نه</w>
کشی دند</w>
کشاور زان</w>
کر ی</w>
کال اهای</w>
چشم ‌های</w>
چار لی</w>
پژو ه
پ س‌
پ اره</w>
وی ور
وی ر
ول ایت</w>
وا دار</w>
نیرو گاه</w>
نگ ه‌
نمی‌توان ند</w>
نف ع</w>
نر م</w>
نام ز
ن ع
ن بودند</w>
ن ایی</w>
ن اس
می‌ ماند</w>
می‌ اندا
می‌ آیند</w>
مواف ق</w>
مو قت</w>
منظ ره</w>
مصاح به</w>
مش اور</w>
مش اور
مس کو</w>
مد ت‌ها</w>
محی ط‌
مح و</w>
مح تو
مج مع</w>
مبت نی</w>
مال ف
م گ
م دل
م خصوصا</w>
م تر
م اس
لی ست</w>
لا ز
ل انه</w>
قهر مانی</w>
قس مت
فی زی
فرو شی</w>
فرو د
فر ق</w>
فر زند</w>
ف ‌ها</w>
عربستان‌ سعودی</w>
ض ع
صحی ح</w>
ص یه</w>
شوهر ش</w>
شو روی</w>
شر قی</w>
شر ف</w>
ش وید</w>
ش دی</w>
ش به</w>
ست ‌های</w>
سال گی</w>
س وی
س ه‌ای</w>
زو م</w>
زمی ن‌های</w>
ز نج
رو ت</w>
ذ هنش</w>
دوست انه</w>
داشت ه‌اند</w>
دار و
داد ستان</w>
دا ده‌ها</w>
خود داری</w>
خان گی</w>
خا ور
خا تمه</w>
خ شک</w>
حر کت
حج م</w>
ث انیه</w>
تو صیه</w>
تدا بیر</w>
تج دید</w>
تال یا</w>
تا ج</w>
ت ‌هایی</w>
بر عهده</w>
بر س
بخ ور
بخ شی
بان ک
باز اری
بازاری ابی</w>
ب کند</w>
ب لی
ای ی‌ها</w>
او باما</w>
انگ شت</w>
اند ک</w>
ان و</w>
اس ناد</w>
اس تو
ارو پای</w>
ار ف</w>
اح م
ات هام</w>
ا پو
ا شی
آن ا</w>
آز ار</w>
آ هنگ</w>
m a
3 5</w>
. 3</w>
‌شده‌ .</w>
ی قی
گو ن
گر سنگی</w>
گذ ران
گ یت</w>
کنج ک
کار مندان</w>
کار ت</w>
پیو ند</w>
پز شک</w>
پرو رش</w>
پر چ
پر ده</w>
پای تخت</w>
پاک ‌سازی</w>
پ ائ
ور ش</w>
واشنگ تن</w>
و فا
ه‌ سازی</w>
ه ه</w>
ه تل</w>
نی ویور
نی م‌
نگ اهش</w>
نو م</w>
نمی‌ داد</w>
نمی‌ خو
نمو ده‌است</w>
نمو ده</w>
نس ب
نا دیده</w>
می‌د انی</w>
می‌خو اند</w>
می‌بر ند</w>
می‌ پو
می‌ پن
می‌ درخ
می‌ داشت</w>
می‌ خواهیم</w>
می‌ انداخت</w>
مو ن
من ‌بود</w>
مقادی ر</w>
معل م</w>
مع روف</w>
محیط‌ زیست</w>
مح مود</w>
مج از</w>
متخص ص</w>
مبل غ</w>
ماه یت</w>
ماه ی
مالف وی</w>
لو ف</w>
ل ‌ها</w>
قط عه</w>
قر ن</w>
قان و
ق ه‌های</w>
فر از</w>
ف ای
عه د</w>
عص بی</w>
عجی بی</w>
ع جب</w>
طر ی</w>
ط ور
شنا خت</w>
شم شیر</w>
شرکت ‌کنندگان</w>
شر ط</w>
ش ریف</w>
ش دیم</w>
سا م</w>
ز ل
ز بان
ری ش</w>
ری ش
رت به</w>
راه‌ حل</w>
راست ش</w>
دی گ
دی ق</w>
دو ی</w>
ده انش</w>
دست م</w>
در ی</w>
در دی</w>
در ت</w>
دخ ترک</w>
دانش‌آمو ز</w>
دا ده‌ای</w>
خو شب
خانوا ده‌های</w>
حواد ث</w>
حضر ت</w>
حاک م</w>
جا ‌بود</w>
جا ده‌ای</w>
ج دی
ج ایش</w>
تی ز</w>
تما شای</w>
تعطی لات</w>
تشک ر</w>
تا زه‌ای</w>
ت ب</w>
بن دی
برو ز</w>
بر ات</w>
بر آورد</w>
بال ات
بازی کن</w>
ب م</w>
ب برد</w>
ای ‌بود</w>
او ایل</w>
اه م</w>
انت خ
ام ده</w>
ال یا</w>
اظهار ات</w>
است قبال</w>
احتی اط</w>
i o
9 0</w>
200 4</w>
گمر کی</w>
کیلو متر</w>
کم کی</w>
کار مند</w>
کار م</w>
ک ین</w>
ک اف
چ پ
پی شین</w>
پی روی</w>
پوشی ده</w>
پرو ن
پ سرش</w>
پ ادا
ویژ گی‌های</w>
واس ه</w>
ه‌ تر</w>
ه‌ ات</w>
هواپی ما</w>
نی ‌
نق ض</w>
نشی نی</w>
ند ها</w>
ن کن</w>
ن شده‌بود</w>
ن داد</w>
ن بودم</w>
می‌ گفتم</w>
می‌ فهم
می‌ ساخت</w>
مهم انی</w>
من ح
مم کنه</w>
مع تر
مص رف
مستقی ما</w>
مربو طه</w>
مر ه</w>
مر زه‌ای</w>
متاسف م</w>
لی ‌ها</w>
لح نی</w>
لا ف</w>
ل رد</w>
ق ش</w>
ق ر</w>
فوق ‌العاده</w>
فلسط ی
فعال ان</w>
فض ایی</w>
ف ور</w>
ض منا</w>
شک ایت</w>
شور شیان</w>
شرای طی</w>
شان س</w>
ش نی</w>
سو فی</w>
سرا غ</w>
سا زمانی</w>
زمی ن‌
ز رد</w>
ز بال
ری خت</w>
روست ایی</w>
رو شی</w>
رو حی</w>
رسان ه‌ای</w>
دول ت‌های</w>
دو ستی</w>
دموکرات یک</w>
دست ‌هایش</w>
دری ای</w>
در آورد</w>
خوان ده</w>
خداو ند</w>
خال ص</w>
حکو مت</w>
حا شی
جی می</w>
جست جو</w>
جال ب</w>
ج غ
ج بران</w>
توزی ع</w>
تو قی
تما شا</w>
تلف نی</w>
تصمیم‌ گیری</w>
تر س
ت ین</w>
ت وری
ت فکر</w>
ت فری
ت اسف</w>
بی‌ آنکه</w>
بی فت
بی اورد</w>
بن شی
بز ودی</w>
بر وی</w>
بر تا</w>
بد نش</w>
با غ
با د
ب پو
ب ویژه</w>
ب ط</w>
ب خوان
ب جای</w>
ای تالیا</w>
ان شان</w>
ان ا</w>
الکت ری
اع ی</w>
اع ز
اع راب</w>
اع ت</w>
اسلح ه</w>
استر الیا</w>
اس کن
ارو پایی</w>
اد موند</w>
ا برو
آسی ب‌
آ ر</w>
t h
8 0</w>
3 00</w>
200 5</w>
‌و نقل</w>
ی خ</w>
گو ناگ
گن دم</w>
گر به</w>
کی تی</w>
کشت ار</w>
کر بن</w>
کتاب خانه</w>
کامپیو تر</w>
کار برد</w>
ک له</w>
ک سی
ک از
چ گو
چ اق
پیش‌ گیری</w>
په لو
پردا خت
پذیر فت</w>
پدر م</w>
پ لی
پ ز</w>
و کیل</w>
ه‌ کننده</w>
ه‌ بندی</w>
ه‌ اید</w>
هم سایه</w>
هد ف
ه ور
نو ی</w>
نمای م</w>
نق ط
ناه ار</w>
نام ه‌های</w>
نا بود</w>
ن فتی</w>
ن جی</w>
می‌دان ستم</w>
می‌خو ان
می‌تو انی</w>
می‌ بود</w>
مو ی</w>
مهند سی</w>
مل که</w>
مشت اق
مز ر
مج وز</w>
مت قاع
مبا دا</w>
م ‌هایی</w>
لو ت</w>
لط ف</w>
ق انه</w>
فیزی کی</w>
فرو دو</w>
فرا تر</w>
فدر اسیون</w>
ف ساد</w>
عم ده</w>
ع ‌
ع د</w>
طب قه‌
صورت‌ گرفته</w>
ص می
ص بح
شیط ان</w>
شهر های</w>
شناس ان</w>
ش ویم</w>
ش را
ش به‌
سی ا
سور اخ</w>
سر نوشت</w>
سر دی</w>
ستیزه‌ جویی</w>
ست ‌
س لی
زن ‌ها</w>
زمی نه‌های</w>
ز یک</w>
ز ور</w>
روی کرد</w>
روی داد</w>
رو پی
راه‌ آهن</w>
ر برتا</w>
ذ خ
ذخ ایر</w>
ده‌ تر</w>
دل ایل</w>
دقی قا</w>
در نگ</w>
دانشک ده</w>
دان ست</w>
دا منه</w>
د ع
خو شی</w>
خو ر</w>
خاور میانه</w>
خ ‌های</w>
خ شن</w>
خ رد</w>
خ امو
حمل ‌ونقل</w>
حر کتی</w>
جی کوب</w>
جست جوی</w>
جا دو</w>
ث م</w>
تی ل
تکن ولوژی</w>
تو پ</w>
تقاض ا</w>
ترو ر</w>
تحلی ل
ت روی
ت ئ
بی‌ اعتن
بیمار ان</w>
بع دها</w>
برس اند</w>
بر وید</w>
بر ج</w>
بر ت</w>
ببی نیم</w>
بالات رین</w>
بال ایی</w>
ب فهم
ایست گاه‌های</w>
ای منی</w>
انی ‌های</w>
انگ لیس</w>
انفج اری</w>
ان بو
ان بار</w>
ام تی</w>
افت تا
اع ط
اض افی</w>
اشتی اق</w>
اشت راک</w>
اسرائی لی</w>
استاندار دهای</w>
استان ‌های</w>
اس ما
اس رای
اس د</w>
اردو گاه</w>
ار باب</w>
ار اده</w>
اخ راج</w>
احس اسی</w>
ات ه
اب م</w>
ئ ون</w>
آفری ق
آ ژانس</w>
. 8</w>
. 7</w>
‌شده‌ در</w>
ی‌ سازی</w>
یک‌ سان</w>
یاد آوری</w>
گیری م</w>
گو های</w>
گر ایان</w>
گذاشت ه‌بود</w>
کری سم
کر اف
ک ان‌
چگو نگی</w>
چو ب‌
چ ک</w>
چ نگ</w>
چ نگ
پیر امون</w>
پی اده</w>
پل ه‌ها</w>
پرس ش</w>
پار ک</w>
پ اول</w>
پ اهای</w>
وی چ</w>
ولو ژ
وح شی</w>
وح شی
و و
و ج
ه‌ه ایشان</w>
نیویور ک</w>
نژ اد</w>
ند های</w>
نام ه‌ای</w>
نام زد</w>
نا چار</w>
نا تا
ن ود</w>
ن اسب</w>
می‌دو نی</w>
می‌ دهیم</w>
می‌ خندید</w>
می‌ افتاد</w>
من فج
ملاحظ ه</w>
مف هوم</w>
معام له</w>
مسل ما</w>
مست قر</w>
مراق ب</w>
مدار ک</w>
مت مرکز</w>
مبار ک</w>
مادر م</w>
م راحل</w>
لی ت‌های</w>
لای را</w>
ل ‌بود</w>
ل کن</w>
ل ز</w>
قر بان</w>
قاب لیت</w>
فرست اده</w>
فرانس وی</w>
ف یر
غیر قابل‌
غال با</w>
غ زه</w>
عمو م</w>
عق اید</w>
عص بانی</w>
ع دال
ظ م</w>
صح ب
شگفت ‌
شک م</w>
شو خی</w>
شلو ار</w>
شر م</w>
شده‌ ام</w>
شت اب</w>
شبا هت</w>
سو دان</w>
سرو ر</w>
سر زنش</w>
ستیزه‌ جو</w>
ساخت ه‌بود</w>
سا عتی</w>
س الی</w>
س ا</w>
زن ند</w>
زان و</w>
ری ز</w>
روست ای</w>
روز انه</w>
روح انی</w>
دید گاه</w>
دست‌ آمده</w>
در سی</w>
در ج
د گان</w>
خو ن‌
خلا ف</w>
خشو ن
خ می
خ راب</w>
خ تی</w>
حی وان</w>
حرف ‌ها</w>
حال ش</w>
ح دو
ح بس</w>
جنا ب</w>
ج بهه</w>
ج اس
تن گ</w>
تغی یری</w>
تع وی
تظاه رات</w>
تص دیق</w>
تخص ی
ت شان</w>
ت بر
بپردا زد</w>
بو س</w>
بو جود</w>
برخ است
بر گرداند</w>
بر دند</w>
بد اند</w>
ببی نید</w>
بان و</w>
بازی ‌های</w>
بازی کنان</w>
بازر س</w>
ب دو
ای نه</w>
ای ند</w>
اول ویت</w>
او نا</w>
انگی زی</w>
انگشت ان</w>
انداخت ن</w>
ان کار</w>
امی ر</w>
امت داد</w>
افتا دند</w>
اغ ل</w>
اض ط
استراتژ یک</w>
اس اس
ار ز</w>
اد ع
اج ی</w>
ائتلا ف</w>
ا دار
ئ ید</w>
آن دره</w>
آل ود</w>
آد می</w>
آ پارت
آ ذ
آ باد</w>
i s</w>
i s
a c
4 5</w>
20 12</w>
1 0
یور و</w>
یو نی
ی ابند</w>
ی ا
گی ج</w>
گست ر
گزار ش‌ها</w>
گر ای
گ ارت</w>
کریسم س</w>
کار هایی</w>
ک ویت</w>
ک لا</w>
چی ه</w>
چر خ</w>
پنج م</w>
پنج اه</w>
پر سن
پارل مانی</w>
پار ام
پ تان
وی لی
وری س</w>
وحشت ناک</w>
واک سین
واح دهای</w>
و زن</w>
و تی</w>
و ات</w>
هیچ‌ گونه</w>
هواپی ماه
همان ند</w>
ه دیه</w>
نگ فت
نژ ادی</w>
نوی س</w>
نمی‌ رسید</w>
نمای ید</w>
نمای ان</w>
نسب تا</w>
نزدی ک‌تر</w>
نام ط
نا ق
نا توانی</w>
ن ل</w>
ن ده‌ای</w>
می‌خو ام</w>
می‌تو ن
می‌ مان
می‌ شناس
می‌ دادم</w>
می‌ خ
می زبان</w>
می تری</w>
مهر بان</w>
من م</w>
ممن وع</w>
مع ذ
مع ادل</w>
مطال ب</w>
مز ایای</w>
محدو ده</w>
مجمو عه‌ای</w>
مان ‌ها</w>
مان دن</w>
لی ون</w>
لی ا</w>
لو س</w>
لا ق</w>
لا دن</w>
قی ر</w>
قلب ش</w>
قض ایی</w>
قال ب</w>
فرود گاه</w>
فرو شگاه</w>
ف و</w>
غیر قابل</w>
غ م
ط ری
ضع ف</w>
شن اسم</w>
شبک ه‌های</w>
ش هری</w>
ش لیک</w>
ش عل
ش دیدی</w>
ش ب‌
سیاست ‌های</w>
سپ اه</w>
سرمایه‌ گذ
ست ار
سازمان ‌ها</w>
سا زی
سا دگی</w>
س ام
س ار
زی با
ز ها</w>
دی نی</w>
دوست ش</w>
ده‌ هایی</w>
ده‌ اید</w>
دموکر اسی</w>
دلی لی</w>
در حالیکه</w>
داشت ه‌بود</w>
دار ش</w>
د انه</w>
خو شش</w>
خ ام</w>
حی اط</w>
حرف ش</w>
جو ام
جوام ع</w>
جدا گانه</w>
جام ع</w>
ج ما
تک ‌
تور های</w>
تلویزی ونی</w>
تروری ست‌ها</w>
تال ار</w>
تاز گی</w>
تاب ستان</w>
بی‌ سی</w>
بن‌ لادن</w>
برگر دان
بان وی</w>
باز گشت
باز و
ب گیرم</w>
ب دی
ب خت
ای را
او نو</w>
او ج</w>
اه ان</w>
اندو ه</w>
انتق ام</w>
انت ین</w>
امکان ات</w>
ام روزه</w>
اعترا ض
است خ
اح وال</w>
ابت کار</w>
ابت دایی</w>
ا داری</w>
ا خو
آور ند</w>
آن‌ سوی</w>
آمی زی</w>
آش فت
آرز و</w>
آ تی</w>
m e
‌ بندی</w>
یافت ه‌بود</w>
ی می</w>
گی س</w>
گزار شی</w>
گذاشت م</w>
گ ز
کیلو متری</w>
کوت اهی</w>
کو شی
کو زت</w>
کم ک‌های</w>
کم تری</w>
کلی نتون</w>
کشی ده‌بود</w>
کاه ش‌یافته</w>
کا غذ
کا خ</w>
ک د</w>
ک امی
چال ش‌های</w>
چا پ</w>
چ ر</w>
پناه ندگان</w>
پرچ م</w>
پر ت</w>
پذیر ایی</w>
پای دار</w>
پ دیدار</w>
وق ت‌ها</w>
وزار ت
وز رای</w>
ور یت</w>
ور ق</w>
واکسین اسیون</w>
واق عی
و سو
هیچ‌ گاه</w>
هی ج
هو ل
هم زمان</w>
هم دیگر</w>
نی می</w>
نی ش</w>
نی س</w>
نی افت
نوشت ن</w>
نمی‌دو نم</w>
نمی‌ شه</w>
نمی‌ آید</w>
نق لیه</w>
نق ش
نفر ی</w>
ند و</w>
نامی ده</w>
ناتا شا</w>
ن کنم</w>
ن کرده‌اند</w>
ن ک
ن دا
می‌توان ستند</w>
می‌ سو
می اد</w>
مک انی
مو م</w>
مو ان
مهم ان
معتر ض
مطمئ نم</w>
مش اغل</w>
مزر عه</w>
مرت به</w>
مرا جعه</w>
مدر ن</w>
مج ر
مبا د
م داوم</w>
لی د</w>
لغ و</w>
ل زوم</w>
ل ری</w>
قی اف
قط عی</w>
قر بانی</w>
ق ذ
ق ات
فرمان دار</w>
فرست اد</w>
ف ن</w>
ف ش
غی ب</w>
غ ریب</w>
عق ب‌
عر ضه</w>
ع مه</w>
ع اط
طل ایی</w>
طبی عت</w>
شی رین</w>
شک سته</w>
شک اف</w>
شم اری</w>
شع ر</w>
شده‌ بودم</w>
ش گر</w>
ش ایست
سو ال
سر گرم</w>
سب ک</w>
سازمان دهی</w>
سا بقه</w>
زم ستان</w>
رف ع</w>
را ئ
ر نگی</w>
ر نج
دی میتری</w>
دست ‌های</w>
دا تی</w>
خیاب ان‌ها</w>
خوشحال م</w>
خواه ند‌بود</w>
خدا حافظ</w>
خانوا دگی</w>
خ رس
حو زه‌های</w>
حو الی</w>
حسا بی</w>
حاشی ه</w>
جن به</w>
جل سات</w>
تواف ق
تو هی
تش دید</w>
ترکی بی</w>
تر ها</w>
تخص صی</w>
ت که</w>
بیای ید</w>
بو ل
بو ش</w>
بهره‌ برداری</w>
به داشتی</w>
بلو چ
بست ن</w>
بر سان
بر اثر</w>
بخ شید</w>
بتوان م</w>
بال قوه</w>
بار یک</w>
ب ستان</w>
این کار</w>
ای ست</w>
ای ب</w>
ای ات</w>
اون جا</w>
اه یم</w>
اه ر</w>
اندا م</w>
ام پرا
ال گوری
افرا طی</w>
افتا ده‌است</w>
اط ین</w>
اط ی</w>
اضط راب</w>
اش غال</w>
استخ دام</w>
اس کات
اس پ
از ای</w>
ارز ش‌های</w>
ار با
اث بات</w>
اتوم بی
ا قی
ئ ه</w>
آو از</w>
آما ده‌
آز مو
آر ام
آ ه
t e
4 00</w>
1 7
1 50</w>
1 3
. 6</w>
. 4</w>
‌ه ای
‌شده‌ ،</w>
‌ طلب</w>
یو نان</w>
ی ی
گیری ‌های</w>
گر می</w>
گذاشت ن</w>
گذ ر
کم ‌ترین</w>
کل ای</w>
کش وری</w>
کس ب‌
کراف رد</w>
کث یف</w>
کتاب ‌ها</w>
کار بران</w>
کار بر</w>
ک ای</w>
چشم ‌هایش</w>
چرا غ
پیو ستن</w>
پیشر فت
پی کر
پی راه
پسر ک</w>
پر ی</w>
پای گاه</w>
پادا ش</w>
پ ور</w>
پ هن</w>
وی ن
وا گذار</w>
وا ع</w>
و ق</w>
هی و
هن دی</w>
هماه نگ</w>
هم کار
هم سای
هر ان</w>
ه ایشان</w>
ه ای
نمو دن</w>
نفر ه</w>
نش ستند</w>
نش انی</w>
نرم‌ افزار</w>
ند هار</w>
نح وی</w>
نتی ج
ن اله</w>
می‌تر سید</w>
می را
می د</w>
مپ یک</w>
مو ث
منفج ره</w>
من صف
من ص
مع ی
مشت اق</w>
مش اب
مسل مین</w>
مسافر ت</w>
مس کن</w>
مز اح
مر دا
مد ت‌
مخا ط
محبو ب</w>
مح روم</w>
متف اوتی</w>
مب هم</w>
مام ان</w>
مالی اتی</w>
ماری وس</w>
ماج را</w>
م زی
م دام</w>
له وین</w>
لا بد</w>
ل وا
ل بن
قل عه</w>
قف ل</w>
قض اوت</w>
قدر ت
قبی له</w>
ق ندهار</w>
فیل د</w>
فع لا</w>
فرمان دهان</w>
فرص تی</w>
فر ی</w>
فر اری</w>
فا قد</w>
ف ‌های</w>
ف ز
عک اس</w>
عملی ات‌های</w>
عق ل</w>
عالی ‌
ع روسی</w>
ط ل</w>
صند لی
ص لاح
شیو ه‌های</w>
شیط انی</w>
شی شه</w>
شی اطین</w>
شک ل‌
شهر ت</w>
شاخ ه</w>
ش ج
سو ئی
سلو ل</w>
سلاح ‌های</w>
سریع ‌تر</w>
س کی</w>
س هم</w>
س می</w>
س عید</w>
روی داده‌ای</w>
روپی ه</w>
رو یم</w>
رق م</w>
دی ک</w>
دی ر
دور دست</w>
دو ز</w>
درو ازه</w>
دار ا</w>
دا دیم</w>
د ستان</w>
خط ا</w>
خانوا ده‌اش</w>
خاطر ه</w>
خ وری</w>
خ ش</w>
حافظ ه</w>
ح ر</w>
جی مز</w>
جه اد</w>
ج ن</w>
ث ا</w>
تی و
تپ ه</w>
تون ل</w>
تنظی مات</w>
تم رین</w>
تع ل
تع ادل</w>
تصاد ف</w>
ترا ف
تخصی ص</w>
تخ لیه</w>
تحقی قاتی</w>
تحری ر</w>
تح سین</w>
تبع ی
ت هران</w>
ت دار
ت ام
بی‌ حرکت</w>
بی‌ بی‌سی</w>
بی ‌بود</w>
بگذ ار</w>
بو ت</w>
به تری</w>
بن وی
بن ای</w>
بزرگ ‌
بز نید</w>
برنام ه‌ای</w>
برادر ش</w>
بر عکس</w>
بر دهای</w>
بر داشتن</w>
بر دارد</w>
بال غ</w>
با دی</w>
ب نو
ب مان
ب خواهد</w>
این‌ جا</w>
ایال ت</w>
ای ی‌های</w>
ای وان</w>
اول وی
ان‌ ال
اندازه‌ گیری</w>
ان واع</w>
ام کان‌
ال گوی</w>
ال مپیک</w>
اقی ان
اف سران</w>
اعت بار
اع ظم</w>
اش لی</w>
است راحت</w>
است خرا
اس می</w>
ارت فاع</w>
اد عا</w>
احم ق</w>
اب ل
آش پز
آر دن</w>
a m
. 1</w>
‌ه ا‌بود</w>
‌شده‌ باشد</w>
‌ گذاری</w>
‌ نظر</w>
‌ شان</w>
‌ دار</w>
یقی ن</w>
ی ‌هایی</w>
ی کن
گیر نده</w>
گوناگ ون</w>
گفت ‌و
گفت گوی</w>
گری د</w>
گرو ه‌ها</w>
گر نه</w>
گر دیده</w>
گذ ر</w>
گ راف</w>
کم‌ کم</w>
کم پ
کلی ه</w>
کرده‌ ای</w>
کان ادا</w>
کال ا</w>
چو بی</w>
چنان چه</w>
چرخ ه</w>
چ سب
پیش انی
پی دا
پو ش</w>
پهل وی</w>
پنج شنبه</w>
پرسن ل</w>
پر تاب</w>
ویلی ام</w>
ول سوالی</w>
وط ن</w>
و نا</w>
و ل‌
و الی</w>
ه‌ یی</w>
هی درو
همی ش
ه ویت</w>
ه راس</w>
نگ اران</w>
نمی‌ دهد</w>
نمی‌ باشد</w>
نف س
نشان‌ دهنده</w>
نش نی
نتوان ست</w>
نا گو
نا صر</w>
نا تو</w>
ن داری</w>
ن خواهم</w>
ن انی</w>
می‌پردا زد</w>
می‌لر زید</w>
می‌اندا زد</w>
می‌افت د</w>
می‌آور ند</w>
می‌ نوی
می‌ زنند</w>
می‌ خواهی</w>
می ک</w>
می س</w>
می رم</w>
مو هایش</w>
مو ل</w>
مو تور</w>
مهارت ‌های</w>
مه ارت</w>
مل ا</w>
مقر رات</w>
مغ از
معتق د</w>
مص مم</w>
مش کو
مس خره</w>
مذ کور</w>
مدت‌ زمان</w>
مج تم
مجتم ع</w>
متقاع د</w>
متخص ص
مت غیر</w>
مار ک</w>
ما ک
م دا
م انه</w>
لیو شا</w>
لی گ</w>
لو ل
لا وه</w>
ل اری</w>
قهو ه</w>
قذ افی</w>
قاچ اق</w>
ق ان</w>
ق ائ
فشر د</w>
ف قیر</w>
عاق بت</w>
طبقه‌ بندی</w>
ص دور</w>
شی می
شور ش</w>
شواه د</w>
شه اد
شغ لی</w>
شخص یت</w>
شار ون</w>
ش راب</w>
سو الات</w>
سنگ ینی</w>
سلط ان</w>
سر ت
سرت اسر</w>
سا عات</w>
زمان یکه</w>
ز ‌بود</w>
ز دهم</w>
ری نا</w>
رو ها</w>
رو به‌
رست وران</w>
رای ‌
راه‌ حل
راست ای</w>
ذ ره</w>
دی دیم</w>
دی ا</w>
دف اعی</w>
دار ن</w>
دا ده‌بودند</w>
خشم گین</w>
خست گی</w>
خان ه‌اش</w>
خ جال
خ اله</w>
حو مه</w>
حقوق ی</w>
حض ار</w>
ح ک
جو ابی</w>
جما عت</w>
جع به</w>
ج ون</w>
ت‌ آمیز</w>
تعه د</w>
تروی ج</w>
تر های</w>
تر م</w>
تر ج
تر بیت</w>
تح ق
تای ی
تا زه‌
بی مه</w>
بچ ه‌های</w>
بور گ</w>
بلوچ ستان</w>
بع ی</w>
بع لاوه</w>
بس ‌تر</w>
بز نند</w>
بر آورده</w>
بد ترین</w>
بانک داری</w>
بان کی</w>
با جور</w>
ب طری</w>
ب صورت</w>
ب جز</w>
این‌ طور</w>
او ز</w>
ان‌ال مسلمین</w>
اندی ش
اندا خته</w>
انجام ‌شده</w>
انبو ه</w>
ان تا</w>
امیدو اری</w>
ام وال</w>
ال ه‌ای</w>
ال ح
اف کند</w>
اف سر
اشی ا</w>
اس مش</w>
ارتق ا</w>
ار ‌بود</w>
ار دی</w>
اخو ان‌المسلمین</w>
اته امات</w>
اتفا ق‌
اب زارهای</w>
ا شی</w>
آور ده‌بود</w>
آور دند</w>
آن را</w>
آل ماتی</w>
آس انی</w>
آ شو
4 4</w>
19 7
1 6
ی‌ که</w>
یکن وا
یهو دی</w>
یاد گیری</w>
ی ونی</w>
گیل انی</w>
گوش ه‌ای</w>
گزی نه</w>
گ او</w>
گ از
کوچ ک‌تر</w>
کو شش</w>
کو س</w>
کو تو
کنجک اوی</w>
کن اری</w>
کشی دم</w>
کسب‌ و
کسب‌و کار</w>
کار شناسان</w>
کار دی
کار آفری
ک ود</w>
پی‌ گیری</w>
پیچ ید</w>
پیو ست
پی کر</w>
پی ام
پل ئون</w>
پرو ت
پر ستی</w>
پذیر د</w>
پتان سیل</w>
پاه ایش</w>
پاس گاه</w>
وی ز</w>
واض ح</w>
وا ج</w>
و گرنه</w>
و ن‌های</w>
و ن
و ده</w>
ه‌ ایم</w>
همی ن
همو ار</w>
هر کس</w>
نی ‌بود</w>
نی کو
نواز ش</w>
نو ک</w>
نو جوانان</w>
نو بت</w>
نمی‌ خواهم</w>
نش ده</w>
نر می</w>
نح وه</w>
نام ی</w>
نام ناسب</w>
نا پلئون</w>
نا درست</w>
ن وری</w>
ن ن</w>
ن ما</w>
ن ما
ن خواهد‌بود</w>
ن ت
می‌گذ شت</w>
می‌پر سد</w>
می‌دو نم</w>
می‌درخ شید</w>
می‌خواست ند</w>
می‌بر دند</w>
می‌ گرفتند</w>
می‌ اید</w>
می ن‌
موجو دی</w>
مق ر</w>
معام لات</w>
مص نوعی</w>
مص ر
مد نی</w>
مخ فی
محی طی</w>
مج ید</w>
متع جب</w>
متص ل</w>
م زه</w>
ل‌ ای</w>
لی کن</w>
لوا زم</w>
له‌ نشین</w>
لر زه</w>
لر زان</w>
ل مس</w>
قدر ت‌های</w>
قبی له‌نشین</w>
ق طر</w>
ق سم</w>
فکر ش</w>
فرمان دهی</w>
فر ه</w>
فر آی
ف نج
غیر ه</w>
غیر نظامی</w>
غیر دولتی</w>
غ ن</w>
غ الی</w>
عص بان
عر فات</w>
عر بستان</w>
ع ود</w>
ع باس</w>
طرف داران</w>
طر فی</w>
ط یل</w>
ض یه</w>
ص لح
شیمی ایی</w>
شک لی</w>
شو ق</w>
شده‌ باشد</w>
ش کو
ش کار</w>
ش بی</w>
سیا ه‌
سی گار</w>
سپر ی</w>
سو مین</w>
سم تی</w>
سلط نتی</w>
سر شان</w>
ست ید</w>
ست ایش</w>
زیب ای</w>
زی ‌بود</w>
ری نی</w>
رع ایت</w>
رسان دن</w>
را ه‌های</w>
ر ضا</w>
ر شو
ذ ی
دو ش</w>
دنبال ش</w>
دن ‌بود</w>
دستورال عمل
دست ه‌
در حال
دا ده‌شده</w>
د که</w>
د ندان</w>
د عا</w>
د تا</w>
خیاب ان‌های</w>
خوشب خت
خود کار</w>
خو انی</w>
خل ق</w>
خس ارت</w>
خبرنگ ار</w>
خاکست ری</w>
خ ل</w>
خ طی</w>
حی اتی</w>
حسا ب
جور ج</w>
جو لای</w>
جلو ه</w>
جز ایر</w>
جادو گر</w>
جاب ز</w>
ج وری</w>
ج ما</w>
ث مر</w>
تی ن‌
تون س</w>
توقی ف</w>
تفری ح</w>
تف نگ</w>
تعل ق</w>
تع طیل</w>
تشک ی
تروری ست</w>
تحصی لی</w>
تاث یرات</w>
ت مای
بیای ند</w>
بی نه</w>
بگذار ند</w>
بمب‌ گذار</w>
بغ داد</w>
بر ن</w>
بر داشته</w>
بده یم</w>
بد بختی</w>
بخ شد</w>
ببی نند</w>
ببر ند</w>
باز گردان
با بت</w>
ب فر
ب شر
ب ز</w>
ب در</w>
این ست</w>
اک تش
ان با
امکان‌ پذیر</w>
افزو ده</w>
افتتا ح</w>
اسرای یل</w>
استخرا ج</w>
است ن
است قرار</w>
اساس ا</w>
اس پان
اس ب‌ها</w>
ار ض</w>
ادار ات</w>
اد غام</w>
اج تنا
اج اره</w>
اب ان</w>
ا ژ
ا زی
ئ ین</w>
آشپز خانه</w>
آز ادی
u n
s h
s e
n e
m o
l o
l e</w>
a p
6 00</w>
3 1</w>
. 9</w>
‌آ ور</w>
‌ بند</w>
‌ اند</w>
یور گیس</w>
ی تی</w>
ی اس
ی ازده</w>
گر دم</w>
گ ور</w>
گ نج
گ تی</w>
گ اه
کود کی</w>
کوتا ه‌
کو پ
کن جه</w>
کن ار
کالی فر
کا پی
ک سری</w>
ک دا
چرخ اند</w>
چال ش</w>
چار لز</w>
چ هل</w>
پیش‌ تر</w>
پی مایی</w>
پی مان</w>
پو ل
پو ست
پل است
پر ندگان</w>
پایین‌ تر</w>
پائ ین</w>
پ ورت</w>
پ ور
پ ناه</w>
پ سری</w>
ویژ ه‌ای</w>
وی ل
وی زلی</w>
وق ایع</w>
وض عی
ور انسکی</w>
وجو دش</w>
واق عه</w>
واس طه</w>
واب ست
و عده</w>
و ع
ه‌ نگ
هست ه</w>
نی کف</w>
نی رو</w>
نگا ه‌های</w>
نوی سی</w>
نوشت ه‌بود</w>
نو ا</w>
نمی‌توان یم</w>
نمی‌توان ید</w>
نمی‌ دهند</w>
نمی‌ آورد</w>
نمای یم</w>
نم از</w>
نق ل‌
نشست ن</w>
نش ون</w>
نام ش</w>
نا س</w>
ن کر
می‌گذار ند</w>
می‌کش ند</w>
می‌ش ویم</w>
می‌خو اد</w>
می‌ گردند</w>
می‌ فر
می‌ رساند</w>
می‌ آ
میلیو ن‌ها</w>
میلیو ن‌
می خو
می خ</w>
می انی</w>
می انگ
میانگ ین</w>
موضو عی</w>
مو زه</w>
مو اق
مو اردی</w>
مهر بانی</w>
مهاج رت</w>
منتظ ر
منا ق
مقی اس</w>
مق صد</w>
معی ارهای</w>
معل مان</w>
مع نا</w>
مع اد
مع ا
مظ نو
مرا تب</w>
مذه ب</w>
محق ق</w>
محاس به</w>
مح ور</w>
مح افظ</w>
مج ه
متاسف انه</w>
ماه ه</w>
مام وریت</w>
مال کیت</w>
ما ژ</w>
م فی
لی ره</w>
لان کا</w>
لا می
قی د</w>
قل م</w>
قل بی</w>
قط ع
قسمت ‌های</w>
قد می</w>
قبی ل</w>
قابل‌ توجه</w>
ق بر
فو لا
فهمی دم</w>
فنج ان</w>
فشر ده</w>
فرانس وی
فرا وان</w>
فر زندان</w>
فر امو
فا جعه</w>
ف هم</w>
ف ن
ف لا
غ نی</w>
عمی قی</w>
عم و</w>
عم ق</w>
عق د</w>
عش ق
عر ق</w>
ع فو</w>
ع ب</w>
ع ام</w>
طرف دار</w>
صلاح یت</w>
صد د</w>
شیو ه‌ای</w>
شکر م</w>
شو را</w>
شهاد ت</w>
شف اف
شبه‌ نظامی</w>
ش کنجه</w>
ش بی
ش اد</w>
سپر س</w>
سو ئ
سل امتی</w>
سر و</w>
سر ما</w>
سال ه‌ای</w>
س عادت</w>
س انی</w>
ز ر</w>
ز بانی</w>
ری ک</w>
ری شه</w>
ری زی
روی ی</w>
روزنام ه‌نگ
رفت یم</w>
رای ‌گیری</w>
را فی
ر پ</w>
ر د
ذه نی</w>
دی ‌بود</w>
دی ‌
دی ان</w>
ده ک
ده مین</w>
دند ان
دست ‌ها</w>
درو نی</w>
دخ تری</w>
دخ الت</w>
داد های</w>
د ن‌
د لال</w>
خی ال
خور دگی</w>
خوان نده</w>
خط رات</w>
خت م</w>
حقی قی</w>
ح ما
ح ات</w>
جو م</w>
جنب ه‌های</w>
جادو یی</w>
ج رائ
ج ات</w>
ت‌ کننده</w>
ت‌ نامه</w>
تک ه‌های</w>
تو ط
تلا شی</w>
تل ‌های</w>
تعی ین‌
تصمی مات</w>
تسهی لات</w>
تز ریق</w>
ترج مه</w>
تر ان
تبلیغ ات</w>
ت وری</w>
ت را</w>
ت ار</w>
ب‌ الله</w>
بی‌اعتن ا</w>
بی‌ درنگ</w>
بین‌المل ل</w>
بور س</w>
بو دید</w>
بو ده‌ام</w>
بلند تر</w>
بز نی</w>
برخ لاف</w>
بر سی</w>
بر ده‌بود</w>
با ور
ب کنی</w>
ب هی
ب مب
ب شوم</w>
ب شه</w>
ب سی</w>
ب انه</w>
ب اند</w>
اینتر نتی</w>
اید ئ
ای ق</w>
ای تی</w>
اک سی
اک سپرس</w>
اک ث
اه ایی</w>
انگی زه</w>
انگشت انش</w>
انتخا باتی</w>
ان یت</w>
ام واج</w>
ام ری</w>
الکتری کی</w>
ال ح</w>
افز ون</w>
اعز ام</w>
اع دام</w>
اصط لاح</w>
اسکات لند</w>
اسپان یا</w>
استع داد</w>
است ی
اس قف</w>
ار و</w>
اد های</w>
اجتما ع</w>
آن‌ گاه</w>
آمریک ایی‌ها</w>
آم ده‌بودند</w>
آق ایان</w>
آسو ده</w>
آد م‌های</w>
آ گا
آ را</w>
آ تل
i p</w>
d e
6 5</w>
5 5</w>
4 1</w>
3 6</w>
3 3</w>
‌ه ایت</w>
‌ال له</w>
‌ خواب</w>
‌ بودیم</w>
یاد ش</w>
ی س</w>
گل ویش</w>
گفت ه‌اند</w>
گفت ار</w>
گشو ده</w>
گزار ش‌های</w>
گ ‌های</w>
گ لی</w>
کی ‌بود</w>
کوچ ک‌ترین</w>
کم ه‌های</w>
کر ه‌
کال ج</w>
ک لو
ک جاست</w>
ک ای
چی ان</w>
چ ه‌های</w>
چ اپ
پیو ست</w>
پیش‌ نویس</w>
پیش‌ فرض</w>
پی روز</w>
پژوه ش</w>
پو ش
پرسی دم</w>
پردا ختند</w>
پر ست</w>
پا تر</w>
پ ش
پ ستی</w>
ویژ گی</w>
ول ز</w>
ول د</w>
وظ ایف</w>
وزارت خانه</w>
هیچ‌ وقت</w>
هی ات‌
هم ی</w>
هم راهی</w>
هل مند</w>
ه او
ه ائی</w>
نی پ</w>
نی ستی</w>
نقر ه</w>
نق اشی</w>
نظ ری</w>
نظ رات</w>
ند گانی</w>
نامی د</w>
نا ت</w>
نا بودی</w>
ن رو
ن داره</w>
ن جی
می‌گذ رد</w>
می‌ز دم</w>
می‌دان یم</w>
می‌ ور
می‌ شناسم</w>
می‌ ر
می‌ بینی</w>
مهم ات</w>
ممنو عیت</w>
مل ک</w>
مل ای
مغ ازه</w>
معذ رت</w>
مع ین</w>
مط لوب</w>
مصرف ‌کنندگان</w>
مشاب هی</w>
مش ق</w>
مسل م</w>
مس خر
مرا قب
مر غ</w>
مد عی</w>
مج سم</w>
مج رم</w>
متح مل</w>
مت شکرم</w>
مای ع</w>
مان ده‌است</w>
ما توف</w>
م ست</w>
م دال</w>
م توس
لی وان</w>
لی دی</w>
لو ع</w>
ل گ
ل م</w>
ل ف</w>
ل س</w>
ل ر</w>
قیمت ‌ها</w>
قهر مان</w>
قاب لیت‌های</w>
ق دیم</w>
فرا وانی</w>
فر ضیه</w>
فا کس</w>
ف دا
غل به</w>
غذ یه</w>
عم ارت</w>
علاق مند</w>
علا قه‌ای</w>
علا قه‌
عل امت</w>
عرا قی</w>
عدال ت</w>
عبدا لر
طل بی</w>
ضر بات</w>
ص له</w>
شگفت ی</w>
شناخت ه‌شده</w>
شخص ا</w>
شت ر</w>
ش طر
سو گند</w>
سو نیا</w>
سو مالی</w>
سنگ ‌های</w>
سنج ش</w>
سفی را</w>
سری لانکا</w>
سر در
ست ر</w>
سان کو</w>
سال گرد</w>
سا ده‌
س می
ری ‌ها</w>
روست ا</w>
رو ان
رفت ه‌بودند</w>
رفت ه‌اند</w>
رف اه</w>
رسی دم</w>
رسان دند</w>
راه ش</w>
را هن
ر ز
دیو ار
دی ده‌اند</w>
دوی ست</w>
دو ان</w>
دش من
درخت ‌های</w>
درحال ی‌که</w>
در ه‌ای</w>
در ص
دار تین‌
دارتین‌ یان</w>
دار ایی</w>
داد ها</w>
دا غ</w>
دا ده‌ام</w>
د دی</w>
خی ز</w>
خی انت</w>
خی الی</w>
خور ده‌بود</w>
خواست م</w>
خن ده‌
خن ثی</w>
خطر ی</w>
خرو ج</w>
خان ه‌
خا ور</w>
خ ش
حساب داری</w>
حس ن‌
حس اس
حز ب‌الله</w>
حدو دی</w>
ح ت</w>
جه نم</w>
جن س</w>
جن ایت</w>
جلو تر</w>
جزی یات</w>
جزی ی</w>
جرائ م</w>
جذ اب</w>
ثرو ت
ت‌ شده</w>
تی که</w>
تی و</w>
تی م‌های</w>
تور م</w>
توان ست
تن ف
تن دی</w>
تم ام‌
تلف ات</w>
تلا ش‌ها</w>
تل خی</w>
تق دیر</w>
تسهی ل</w>
تر غیب</w>
تر از</w>
ت نی</w>
ت نگ
ت لی</w>
بی ایی</w>
بود که</w>
بن در</w>
بست گان</w>
بر سند</w>
بدان م</w>
بد ن
بد بخت
بخ ورد</w>
باز نشسته</w>
ب ق
ب سا
ب استانی</w>
این‌ جور</w>
این و</w>
ای من</w>
ای ماژ</w>
او ست
انی ‌بود</w>
اندو ه
انداخت ه‌بود</w>
ام ‌هایی</w>
ام لاک</w>
الی س</w>
ال و
ال دین</w>
اقدا می</w>
افزای ش‌یافته</w>
افز اید</w>
اف ری
اعط ا</w>
است ین</w>
است دلال</w>
اس نیپ</w>
اس ر
ارتق ای</w>
ار تی</w>
اد راک</w>
اتوم بیل</w>
اتو بوس</w>
ات ‌ها</w>
ات ش</w>
ابل انسکی</w>
اب ‌های</w>
ا کو
ئ و
آن ‌هایی</w>
آمی خته</w>
آم اری</w>
آل مانی</w>
آر ایش</w>
آ وار
آ لیوشا</w>
t t
s p
in g</w>
8 00</w>
4 7</w>
4 2</w>
3 2</w>
20 13</w>
199 0</w>
‌آ هن</w>
‌ آور
یا دم</w>
گیری ‌ها</w>
گو اهی</w>
گفت‌و گو</w>
گشت ند</w>
گزار ش‌
گذشت ه‌بود</w>
گا ه‌
گ شته</w>
گ ا</w>
کی نگ</w>
کی ست</w>
کو هست
کنن ده‌ای</w>
کل مه‌ای</w>
کرده‌ اید</w>
کر نل</w>
کار ی‌های</w>
کار و</w>
کار شناس</w>
کار بردی</w>
کا بینه</w>
ک مو
ک لام</w>
چشمان م</w>
چس بی
چرا غ</w>
پیکر بندی</w>
پیشر فته</w>
پیش انی</w>
پیر زن</w>
پی د
پو شان
پنج ‌
پرون ده‌های</w>
پر نده</w>
پ ژ
پ دیده</w>
وق تی‌
ور ی‌
ور ین</w>
وا ژه</w>
و خ
هی ت‌
هیت‌ کلیف</w>
هواپیماه ای</w>
همه‌ چیز</w>
هم کاران</w>
هم را
هست ن</w>
هزی نه‌ها</w>
هر اس
ه وی
ه رو
ه د</w>
ه جوم</w>
نیم کت</w>
نی ‌اش</w>
نی ل</w>
نی ان</w>
نگ ‌
نگ و
نو به</w>
نمی‌ کنی</w>
نمی‌ شوند</w>
نمی‌ آمد</w>
نمو ده‌اند</w>
نق د</w>
نس بی</w>
نر خ‌های</w>
نام ه‌ها</w>
نا و
نا خالص</w>
ن گرفته</w>
ن دیده</w>
ن دارید</w>
ن خ</w>
می‌گوی ی</w>
می‌دان ستند</w>
می‌خور دند</w>
می‌تو نم</w>
می‌بی نیم</w>
می‌بی ند</w>
می‌ گیرم</w>
می‌ گم</w>
می‌ کشیدند</w>
می‌ کرده</w>
می‌ نشی
می‌ بایستی</w>
می‌ آمدند</w>
میرا ث</w>
مکر ر</w>
مکان ‌های</w>
مک عب</w>
مک ث</w>
موقعی ت‌های</w>
موان ع</w>
مو اظ
مند انه</w>
منت هی</w>
مناس بت</w>
من ز
مل حق</w>
مل انی</w>
مق الات</w>
مغ رو
معترض ان</w>
مع یار</w>
مع ن
مطبو عات</w>
مست ل
مستل زم</w>
مر بی</w>
مخال فان</w>
محق قان</w>
مت شکل</w>
مت ان</w>
مبار زات</w>
مار چ</w>
مادر بزرگ</w>
ماج را
ما دی</w>
م ‌تر</w>
م گ</w>
م ث</w>
م به
ل‌ شده</w>
لو ک</w>
لب ‌هایش</w>
لا دی
ل ک</w>
قرار دادی</w>
قدر تمند</w>
ق ‌های</w>
ق ‌تر</w>
ق طر
فو ق</w>
فر م</w>
فر ط</w>
فار غ
فارغ ‌ال
ف ه‌ای</w>
غل ط</w>
غ ه</w>
عقب‌ نشینی</w>
عض ویت</w>
عاد لانه</w>
ع ل</w>
ع اد</w>
صرف ه‌
شی وع</w>
شی ار</w>
شور شی</w>
شن گ</w>
شع له</w>
شر مس
شب ‌ها</w>
ش ما
ش ص
ش شم</w>
ش او
ش ال</w>
سین ه‌اش</w>
سی ب‌
سو زی</w>
سو خت
سو اری</w>
سه ام
سف ارت</w>
سط حی</w>
سروی س‌های</w>
سر ط
ست انی‌ها</w>
ساز گاری</w>
ساخت مان‌های</w>
س ک
س وا
س نی</w>
س حر</w>
زی ه</w>
زی سیون</w>
زبال ه</w>
ز شت</w>
ز ام
ری ز
ری خت
ری ب‌
رژ ی
روز مره</w>
رو غن</w>
رو ان‌
رنگ ‌
رسو ایی</w>
رس م</w>
رس انه</w>
رای گان</w>
ر ه‌ای</w>
ر قیب</w>
ر شت
ر ده‌
ذ ی</w>
ذ وق</w>
دیو ارها</w>
دی ده‌است</w>
دو ف</w>
دو جانبه</w>
درص دی</w>
در شت</w>
در ست
در بار
دانش مندان</w>
دار ‌بود</w>
دار و</w>
دا دست
د ما
د شان</w>
خوش حالی</w>
خود کشی</w>
خو شم</w>
خو دی</w>
خو درو</w>
خط ‌آهن</w>
خجال ت</w>
حقی ق
حر ارت</w>
ح ساس</w>
جه ت‌
جل ال
جغ رافی
جان شین</w>
ج راحی</w>
ثبت‌ نام</w>
توهی ن</w>
تهدی دات</w>
تق لید</w>
تق دیم</w>
تف اه
تظاه ر
تص اب</w>
تراف یک</w>
تحلیل گر</w>
تجر بی</w>
تئ اتر</w>
ت مجید</w>
ت انی
بی‌ه وده</w>
بی کاری</w>
بی رو
بگوی ید</w>
بگذار یم</w>
بکش ند</w>
بود ج
بو می</w>
به تره</w>
بع دش</w>
بر قی</w>
بر رسی
بر د
بر تری</w>
بدن بال</w>
بد لیل</w>
بخ ار</w>
بحث ‌های</w>
بان ان</w>
باقی مانده</w>
ب دیم</w>
ب خواهید</w>
ب بن
ب ام
ای ه</w>
ای فا</w>
اپو زیسیون</w>
ان‌ بودند</w>
انس ‌های</w>
انداخت ند</w>
اندا زه‌ای</w>
انتظ امی</w>
ان گ</w>
ان که</w>
ان ص
ام ض
ام ام</w>
الی ایی</w>
ال ‌ها</w>
ال کس
ال تحریر</w>
افغ انی</w>
اف سون</w>
اف سان
اطرا فش</w>
اش ون</w>
اش ع
اش خاصی</w>
اسپ انی
ازدو اج
ار ن</w>
اذ یت</w>
اد ها</w>
اخلا ق</w>
اث رات</w>
اتاق ‌های</w>
ات م</w>
ا کی</w>
ا بری
آک اد
آن جایی</w>
آشن ایی</w>
آز وز</w>
آرز وی</w>
آ وا
آ شکار
آ ره</w>
آ تش
آ ب‌های</w>
u r
s o
s c
m s</w>
i d
c h
6 6</w>
3 8</w>
‌شده‌ که</w>
‌شده‌ توسط</w>
‌ ید</w>
‌ نشده‌
یک پارچه</w>
یک باره</w>
گیر ه</w>
گی ‌ها</w>
گو شش</w>
گو ارت
گمر ک</w>
گش ایی</w>
گست ری</w>
گرفت ه‌بودند</w>
گر ها</w>
گر م‌
کو ه
کن ارش</w>
کم ک‌
کل نیکف</w>
کل به</w>
کر م</w>
کت ابی</w>
کامی ون</w>
کام لی</w>
کالیفر نیا</w>
ک ه‌ای</w>
ک شان</w>
ک ج</w>
چو ب
چشم ‌ها</w>
چ و</w>
پیراه ن</w>
پیاده‌ سازی</w>
پی چ</w>
پی غام</w>
پی شت
پی تر</w>
پی امی</w>
پوشی ده‌بود</w>
پرو سه</w>
پردا زش</w>
پرا کنده</w>
پر سی</w>
پر ت
پذیر ند</w>
پ شی
وقتی‌ که</w>
ورز ش‌
وحشی انه</w>
وج دان</w>
و سا
ه‌ ای‌بود</w>
هی چی</w>
هی ول
هرو ئین</w>
هر و</w>
ها گوارت
ه ور</w>
ه نه</w>
ه مون</w>
ه ایم</w>
نیرو ها</w>
نیرو مند</w>
نگ ر</w>
نوشی دنی</w>
نو سازی</w>
نو آوری</w>
نه‌ سازی</w>
نها ده‌ای</w>
نه ای
نمی‌توان ستند</w>
نمی‌تو نم</w>
نمی‌ خواهد</w>
نق شی</w>
نشست ه‌بودند</w>
نش انه‌ای</w>
نش اند</w>
نان و
ن کنند</w>
ن کات</w>
ن هم</w>
ن صی
ن باش</w>
ن ای
می‌کش م</w>
می‌پن داشت</w>
می‌فهم م</w>
می‌خور م</w>
می‌تو نی</w>
می‌ نوشت</w>
می‌ رویم</w>
می‌ اندیشید</w>
می کرو
می هم
می زی</w>
می تو
مگ س</w>
مک انی</w>
موافق ت‌نامه</w>
مو نی</w>
مو بای
منط ق</w>
منا ظ
مف اهیم</w>
مع دن</w>
مض طر
مشاور ه</w>
مسی حی</w>
مسافر ان</w>
مس کو
مس لح
مرا جع</w>
مر غ
مدی ره</w>
محاس بات</w>
مح له</w>
مج له</w>
مار گارت</w>
ما ز
م همان</w>
م هر</w>
م لی
م لو
لا غر</w>
ل ندی</w>
قز اق</w>
قب ایل</w>
ق ش
ق سمتی</w>
ق ام</w>
ق اب</w>
فی ل</w>
فی س</w>
فو ت</w>
فر س
فر انی</w>
ف ون</w>
ف ل</w>
ف شان</w>
عی ب</w>
عو ارض</w>
عل ایم</w>
عصبان یت</w>
عبار تند</w>
ع ده‌ای</w>
ط لوع</w>
ط ار</w>
ضر ر</w>
صرف ‌نظر</w>
ص ری</w>
شی ده</w>
شک اری</w>
شهر ک</w>
شن ا</w>
شم ند</w>
شم است</w>
شطر نج</w>
شر ه</w>
شر ت</w>
شای سته</w>
شان ‌بود</w>
ش کوه</w>
ش ل
ش ش‌
سیب‌ زمینی</w>
سیاست مدار
سی دم</w>
سی تی</w>
سی ار</w>
سو ل</w>
سو زان</w>
سو اد</w>
سه شنبه</w>
سفی دی</w>
سف ارش</w>
سرمایه‌گذ اری‌های</w>
سر دبیر</w>
سا ب
زخ م</w>
ز اند</w>
ری ‌
ری س
ری خته</w>
روزنامه‌نگ ار</w>
رو شنی</w>
رو انی</w>
رم زی</w>
رقاب تی</w>
رق ص
رای‌ دهندگان</w>
راس کلنیکف</w>
رادی ویی</w>
ر خت
دی ‌ها</w>
دی وید</w>
دی شب</w>
دور بین</w>
ده‌ شده‌
دستور ها</w>
دست ه‌ای</w>
دری ه</w>
در ها</w>
در خواست
دبیر ستان</w>
داد گستری</w>
دا من</w>
دا لی</w>
دا ث</w>
د گر
د مای</w>
د ف</w>
خوی شاو
خواه م‌بود</w>
خو ب‌بود</w>
خلی ج</w>
خطر نا
خان م‌ها</w>
خامو شی</w>
خاطر ش</w>
حو اس
حص ار</w>
حسن‌ نیت</w>
حس ب</w>
ح ک</w>
جنگ جویان</w>
جن ایی</w>
جم لات</w>
جلال ‌آباد</w>
ج استین</w>
تی پ</w>
تک‌ تک</w>
تپ ه‌های</w>
تولی دات</w>
تو پ
تو ج
تنا ع</w>
تن فر</w>
تن ش</w>
تن ار
تم ری
تل قی</w>
تعیین‌ شده</w>
تع ظ
تض عی
تص ور
ترک ‌ها</w>
تر ن</w>
تر می
تر سی</w>
تر دیدی</w>
تدری ج</w>
تخ مین</w>
تحقی ر</w>
تحق ق</w>
تج ار</w>
تبعی ض</w>
تب اری</w>
ت ‌تر</w>
ت کلیف</w>
ت نوع</w>
ت ل‌
ت ف</w>
ت غذیه</w>
ت طبی
ت انی</w>
بی‌ آن</w>
بیفت د</w>
بیش‌ تر</w>
بی ان
بی ات</w>
بگوی یم</w>
بگذار م</w>
بگذ رد</w>
بپردا زند</w>
بو ت
به‌ دست‌آمده</w>
به تر‌بود</w>
به ار</w>
بش نوم</w>
بست ه‌بود</w>
بزر گان</w>
بز ن</w>
بری ج</w>
برگشت ند</w>
برنام ه‌ها</w>
بر پا</w>
بحر انی</w>
بتو ان</w>
بان وان</w>
باز وی</w>
باز بینی</w>
با کو</w>
با طل</w>
با خت</w>
با ح</w>
ب کنید</w>
ب نظر</w>
ب لی</w>
ب خواهیم</w>
ب ای</w>
این طور</w>
ایستا ده‌بودند</w>
ایرا د</w>
ایر لند</w>
ای لی</w>
ای ز
ای تان</w>
اکث ریت</w>
اک سید</w>
اور ده</w>
او ن‌ها</w>
او لی</w>
او س
انتخ ابی</w>
ان قدر</w>
ان س</w>
امی دی</w>
امو ند</w>
ام روزی</w>
ام ده‌بود</w>
ام تناع</w>
ال گوهای</w>
ال ش
ال آن</w>
اقیان وس</w>
افتا دم</w>
اعتراض ات</w>
اشک ال</w>
اسکن دریه</w>
استع فا</w>
است خوان
است ان‌ها</w>
اس امی</w>
از ش</w>
از دهم</w>
ارت ک
ار ویی</w>
ار دو</w>
اد ب</w>
اختص اص
اخت ی
اخت را
اح داث</w>
اجتنا ب</w>
اج لاس</w>
اتاق ش</w>
اب عاد</w>
ا ده‌ای</w>
ا ئی
ئ ور
آی ی</w>
آوار گان</w>
آما دگی</w>
آم دم</w>
آفری قا</w>
آشفت گی</w>
آ صف</w>
آ بی
، ‌ای</w>
w i
s i
i t</w>
g t</w>
c t
a g
7 5</w>
5 8</w>
5 7</w>
4 8</w>
4 6</w>
‌ گر</w>
‌ افزار</w>
ی‌ شده</w>
یافت ه‌است</w>
یاس ین</w>
یاد آور</w>
ی گانه</w>
ی چ</w>
ی وا
گی اه</w>
گو شی</w>
گروه ه‌ای</w>
گرفت یم</w>
گرفت ه‌شده</w>
گر دی</w>
گر دنش</w>
گذاشت ه‌است</w>
گذ ارد</w>
گ شود</w>
گ او
گ ارد</w>
کیلو وات</w>
کوی ته</w>
کود ک
کن سر
کمی ت
کم پین</w>
کل یک</w>
کل ان</w>
کل اری
کش ‌های</w>
کت ک</w>
کاپی تان</w>
کار ل
کارل ایل</w>
کات رینا</w>
ک یک</w>
ک یه</w>
ک سر</w>
ک اس
چشم‌ انداز</w>
چشم انی</w>
چش مه</w>
چرخ ید</w>
چ ه‌ای</w>
چ اک</w>
چ اق</w>
پی غ
پن هانی</w>
پل کان</w>
پشت ‌
پای داری</w>
پاد شاه</w>
پا تی
ویر ایش</w>
وی د
وی ا</w>
وض وح</w>
وحشت نا
و صل</w>
و صل
و زی
هیچ‌ وجه</w>
هی م</w>
هی س</w>
هن دوستان</w>
همی ن‌بود</w>
هماه نگ
هم ‌بود</w>
هر دو</w>
ها گ</w>
نی فت
نی ر</w>
نی امده</w>
نویس ندگان</w>
نو ف</w>
نمی‌ کردم</w>
نمی‌ رسد</w>
نم ک</w>
نقر ه‌ای</w>
نص ف</w>
نشان ه‌های</w>
نش ستم</w>
نح و</w>
نال د</w>
ناز ک</w>
نا پذیری</w>
ن کردم</w>
ن دم</w>
ن درت</w>
ن جو
ن ار</w>
می‌کو شید</w>
می‌دو ید</w>
می‌آور دند</w>
می‌ که</w>
می‌ کردی</w>
می‌ ریخت</w>
می‌ دهید</w>
می‌ داشتند</w>
می‌ بار
می‌ افزاید</w>
میلیون‌ دلاری</w>
میر ند</w>
می نا</w>
می سر</w>
می ری</w>
می رد</w>
موق تی</w>
موفقی ت‌آمیز</w>
مور دی</w>
مواج هه</w>
مهم ‌تر</w>
مهاج م</w>
مهاج ر</w>
مناس بی</w>
مق صر</w>
مغ زش</w>
مع ج
مع تبر</w>
مشخص ات</w>
مشتاق انه</w>
مش عل</w>
مسل ط</w>
مسافر تی</w>
مس دود</w>
مزی ت</w>
مرد انی</w>
مر و</w>
مر دها</w>
محتو ای</w>
مح سود</w>
مجه ز</w>
مج اور</w>
مث بتی</w>
مت قابل</w>
ما ‌بود</w>
ما ق</w>
ما تری
م گه</w>
م داخله</w>
م بنای</w>
م است</w>
لی بر
لط ی
لاز مه</w>
ل ه‌ها</w>
قو ت</w>
قهو ه‌ای</w>
قر ض</w>
قد م‌های</w>
قاچ اق
قائ ل</w>
ق ‌بود</w>
ق ور
ق شنگ</w>
فلسطی نی‌ها</w>
فری ادی</w>
فر سو
فر ای
ف ضا</w>
غ م‌
غ بار</w>
عی نک</w>
عی ن
عی سی</w>
عمل ا</w>
علاقه‌ مند</w>
عظ یمی</w>
عذ ر</w>
ع یل</w>
ع دد</w>
ع ث
ظ ل
ظ ریف</w>
طول انی
طل بان</w>
طبی عی
ط ‌های</w>
ط وری
ط ع
ط اق
ضعی فی</w>
ضرو رت</w>
ض یافت</w>
صور تم</w>
صاد راتی</w>
شه روند</w>
شم ع</w>
شص ت</w>
شرکت ‌کننده</w>
شب ح</w>
شا خص
ش وی</w>
ش مع
ش اهی</w>
ش انی</w>
سین ما</w>
سی ‌ها</w>
سی گ
سی صد</w>
سور اخ
سوئی س</w>
سو س</w>
سلو ل‌های</w>
سرا زیر</w>
ست اره</w>
سال ی
ساع ته</w>
س پاس
س لیم</w>
س فت
زیر ساخت</w>
زی اد
زو د
زر داری</w>
ز ده‌
ز اد
ریزی ‌شده</w>
روی ارویی</w>
روز اموند</w>
رو یا</w>
رو بل</w>
رسان ند</w>
رس ما</w>
رح م</w>
رای ج</w>
راه‌حل ‌های</w>
راه پیمایی</w>
راس توف</w>
را هرو</w>
ر گ
ر الف</w>
ذه نم</w>
ذ وب</w>
دی‌ اکسید</w>
دیو انه‌
دی نگ</w>
دی ده‌
دوست ‌
دوست انش</w>
دور تر</w>
دو خت</w>
دموکر ات</w>
دف ن</w>
دستورال عمل</w>
دست گاه‌های</w>
درد ناک</w>
درد سر</w>
در ‌ان</w>
در مانی</w>
در مان
در حال</w>
دان ستن</w>
دار های</w>
د پارت
د وری</w>
د مشق</w>
د استان‌های</w>
خور دند</w>
خور اکی</w>
خور اک</w>
خود مخت
خود رو
خو ف</w>
خد مه</w>
خار ق
خا ش</w>
خ لوت</w>
خ فت
خ شک
خ شنود</w>
خ زی
حک ایت</w>
حص ول</w>
حرکت ‌بود</w>
حرف ه</w>
ح لی</w>
جنا ح</w>
جمه وری‌
جر ج</w>
جای زه</w>
ج شنو
ج ائی</w>
ثرو تمند</w>
ت‌ زده</w>
تی ‌بود</w>
تکنی ک</w>
توزی ع
تو ست</w>
تما شا
تف او
تعه دات</w>
تض اد</w>
تصاد فی</w>
ترس ناک</w>
تر ‌بودند</w>
تدار ک</w>
تخت ‌خواب</w>
تح میل</w>
تای مز</w>
تاسی سات</w>
تار ا</w>
تاث یر
ت نگی</w>
ت میز</w>
ت دو
ت ج</w>
بی‌ نظ
بی ل‌ای</w>
بکش م</w>
بپر سم</w>
به انه</w>
بنی اد</w>
بست ری</w>
بزرگ ش</w>
برگر دم</w>
برنامه‌ ریزی‌شده</w>
بر هنه</w>
بر ن
بر تر</w>
بده ی‌های</w>
بان ک‌های</w>
بازی ‌ها</w>
بازر گ
ب گم</w>
ب کو
ب هم</w>
ب های</w>
ب ها</w>
ب نام</w>
ب خواهند</w>
اوم ده</w>
او ژن</w>
انح راف</w>
ام ار
الگوری تم</w>
ال حیات</w>
اق ل</w>
افزو دند</w>
افراط‌ گرایان</w>
اف ل</w>
اع لی</w>
اع لامی
اع تباری</w>
اش ‌بود</w>
اسما عیل</w>
اس کار</w>
از ل</w>
ار گ</w>
ار قام</w>
ار ا</w>
ادع ای</w>
اخترا ع</w>
احمق انه</w>
احساس اتی</w>
اج زای</w>
اج باری</w>
اث ری</w>
اتا ق‌
ا بری</w>
ئور لی
ئ لی</w>
آی نه</w>
آن ی</w>
آغ از
آس ایش</w>
آتل انتا</w>
آ ژ
آ درس</w>
آ ئورلی
199 2</w>
0 2</w>
‌ یافته</w>
ی‌ ای</w>
یکنوا خت</w>
یک بار</w>
یونی سف</w>
یافت م</w>
ی لی</w>
ی قه</w>
ی ز</w>
ی ارد</w>
گیر انه</w>
گوی ا</w>
گل ‌های</w>
گل ویم</w>
گش ایش</w>
گزی نه‌های</w>
گرفت ه‌ام</w>
گر گ‌ها</w>
گر و</w>
گر مای</w>
گر دیم</w>
گذشت ه‌است</w>
گ پ</w>
گ وری</w>
گ لو
کور ه</w>
کو ه‌های</w>
کو بی
کنی ن</w>
کنی ا</w>
کن وان
کنوان سیون</w>
کم کش</w>
کشور ش</w>
کشت ی‌های</w>
کسی ‌بود</w>
کری موف</w>
کتور یا</w>
کتاب ‌
کت ار</w>
کان ون</w>
کاز و
کازو بن</w>
کار گاه</w>
کار انه</w>
کار آیی</w>
ک تی
ک تور</w>
چی زی‌بود</w>
چهر ه‌های</w>
چسب اند</w>
چرخ د</w>
چراغ ‌های</w>
چ ه‌بود</w>
چ نی
پیدا ‌بود</w>
پی مان
پی انو</w>
پی ام‌های</w>
پنجر ه‌های</w>
پل ک</w>
پسر ها</w>
پری شان</w>
پروت کل</w>
پر تو</w>
پای انی</w>
پان زده</w>
پاس خ‌
پ له</w>
پ ترو
پ اش
وی کتوریا</w>
ول تا
وفا دار</w>
وسی عی</w>
وس عت</w>
ور دی</w>
وار د
وا ط
و کلای</w>
و ها</w>
و ستن</w>
و ام‌های</w>
و اری
ه‌ ور</w>
هیج ان‌
هواپی مای</w>
هنگ ا
هنگا می‌که</w>
هنر مند</w>
همی ه</w>
هم دردی</w>
ه کتار</w>
ه و</w>
ه ند
ه ال</w>
نیمه‌ شب</w>
نیرو گاه‌های</w>
نگ و</w>
نهای تا</w>
نمی‌دان ستم</w>
نمی‌خو اد</w>
نمی‌تو نی</w>
نمو نه‌های</w>
نمو نه‌ای</w>
نقط ه‌ای</w>
نفس ش</w>
نظ ریه</w>
نظ ری
نظ رس
نص ر</w>
نشان‌ داده</w>
نش اط</w>
نزدی ک‌بود</w>
نز مه</w>
نرو ژ</w>
ند ش</w>
نام ر
ناق ص</w>
ناظ ران</w>
ناظ ر</w>
ن هفت
ن ده‌
ن تون
می‌گوی یم</w>
می‌گذ شت
می‌پردا زند</w>
می‌پر سم</w>
می‌ش وید</w>
می‌خ ندد</w>
می‌ پرسید</w>
می‌ ها</w>
می‌ نمایند</w>
می‌ فهمید</w>
می‌ شدم</w>
می‌ راند</w>
می‌ امد</w>
می وه</w>
می همان</w>
می له</w>
می ان‌
مک زیک</w>
موث ری</w>
موبای ل</w>
مو س</w>
مو د
مهم ند</w>
مهر بان
مهاج مان</w>
منظور ش</w>
منظ م</w>
منح صر</w>
مناق شه</w>
من عکس</w>
من ع</w>
من حرف</w>
مل ایم</w>
مق ص
معلو م‌بود</w>
معل ق</w>
معتق دند</w>
معاد له</w>
مع نوی</w>
مطمئ ن‌بود</w>
مطل ق</w>
مط مین</w>
مشکو ک</w>
مشرو ب</w>
مسی ح</w>
مسلح انه</w>
مسا جد</w>
مسا ئلی</w>
مسئو لین</w>
مس خر</w>
مرو ر</w>
مراقب ت‌های</w>
مر دن</w>
مر تک
مر بع</w>
مدر ک</w>
مخا زن</w>
مخ لو
مخ زن</w>
محکو میت</w>
محدودی ت</w>
محافظ ه‌
مح تم
مح ترم</w>
مح تا
مج روح</w>
مج ازی</w>
متف او
متع ددی</w>
متخصص ان</w>
متح ده‌
متحده‌ عربی</w>
مت مایل</w>
مت غیر
مبه وت</w>
مبل غی</w>
مبار زان</w>
مباد له</w>
مب ل</w>
مان وف</w>
مام وری
ماج رای</w>
م کن</w>
م فت
م شان</w>
م سرت</w>
لی‌ لی</w>
لی نگ</w>
لو ژ
لبن انی</w>
لا ب</w>
لا اقل</w>
ل ق
ل ام
قی ام</w>
قط عات</w>
قض ات</w>
قرار دادهای</w>
قاط ع</w>
قابل‌ قبول</w>
ق امت</w>
ق الی</w>
ق ادر
فیر برادر</w>
فی و
فی صل</w>
فهم ی</w>
فلسطی نیان</w>
فق دان</w>
فرو کش</w>
فر ضی
ف ‌
ف ورد</w>
ف ایل</w>
ف ایده</w>
ف اسد</w>
غرو لند</w>
غرو ر</w>
غ ار</w>
عکس ‌ها</w>
عکس ‌ال
عمی ق‌تر</w>
عم دتا</w>
عل ف</w>
عشق ‌آباد</w>
عاد ل</w>
ع ه‌های</w>
ع ناصر</w>
ع سل</w>
ع ز
ع ام
ظاه ری</w>
ظ و
طر حی</w>
ضر به‌ای</w>
صفح ات</w>
صبح انه</w>
صاد قانه</w>
صاح ب‌
صاح بان</w>
ص لی</w>
ص ریح</w>
شی ن
شی دند</w>
شکل‌ گیری</w>
شنی ده‌ام</w>
شم اره‌
شر کتی</w>
شده‌ ایم</w>
شده‌ ای</w>
شبک ه‌ای</w>
شب انه</w>
شان ون</w>
شان ه‌هایش</w>
ش هو
ش ل</w>
ش انگ
ش اری</w>
سیست م‌ها</w>
سیاستمدار ان</w>
سی م‌
سی مان</w>
سی ا</w>
سپر ده</w>
سه‌ تا</w>
سن جی</w>
سفر ه‌ای</w>
سرو ان</w>
سرط ان</w>
سر نگ
سر فه</w>
سر شار</w>
سر خ
ستیزه‌ جوی</w>
ستار گان</w>
ست ان‌های</w>
ست ان
سای رین</w>
سالی انه</w>
ساخت ه‌شده</w>
سا کت
س ه‌های</w>
زو زه</w>
ری ‌بود</w>
ری تی</w>
رک ود</w>
روی دادها</w>
روزنام ه‌ها</w>
رو مانی</w>
رو مان
رو ان</w>
رو ا</w>
رنگ‌ پری
رنگ ش</w>
رفت ارهای</w>
رفت ارش</w>
رسی دیم</w>
رسی ده‌اند</w>
را برت</w>
ر ند</w>
ر ل</w>
ر خ
ر ام
ذی ب</w>
ذ خیر
ذ ا</w>
دیپل ماتیک</w>
دیوانه‌ وار</w>
دوی دن</w>
دوست‌ داشت
دور ه‌های</w>
دور ه‌ای</w>
دور افتاده</w>
دو ام</w>
دهک ده</w>
دند ان‌های</w>
دفت ر
دست‌ خوش</w>
دستورالعمل ‌های</w>
دست یار</w>
دست ه‌های</w>
دری ک</w>
در گیری‌های</w>
در ش
دختر ها</w>
دبیر کل</w>
دار ویی</w>
دائ می</w>
دا ع</w>
د ز</w>
خی ریه</w>
خوش ایند</w>
خور شی
خواب ش</w>
خن ک</w>
خلا ص</w>
خصوص ی‌سازی</w>
خس ارات</w>
خدا حافظ
خد ایا</w>
خاطر نشان</w>
خا کی</w>
خ نج
خ ج
حو صله</w>
حسا برسی</w>
حر کات</w>
حاک میت</w>
ح ماس</w>
ح ش</w>
ح ش
جو ان‌
جن ون</w>
جمه وری
جر ایم</w>
جال بی</w>
ج فت</w>
ج ف</w>
ج دایی</w>
ج اها</w>
ثرو ت</w>
ت‌ بودند</w>
تی می</w>
تی اد</w>
تک ذیب</w>
توس عه‌
تواف ق‌
تو س</w>
تن اسب</w>
تل ف</w>
تل ر</w>
تق وی
تف سیر</w>
تف اوتی</w>
تعوی ق</w>
تع میر</w>
تع ارف</w>
تطبی ق</w>
تضعی ف</w>
تصوی ری</w>
تشکی لات</w>
تری اک</w>
تحلی ل‌
تحقی قی</w>
تحصی ل‌
تج ویز</w>
تج اوز</w>
تج ارت
تاب ع</w>
تا ل</w>
ت یا</w>
ت کن</w>
ت نه</w>
ت د</w>
ب‌ ترین</w>
بی‌ اختیار</w>
بیاور ند</w>
بگوی ی</w>
به‌ اش</w>
بش که</w>
برگشت ن</w>
برادر ان</w>
بر طرف</w>
بر دم</w>
بر داشتم</w>
بر ایت</w>
بر اون</w>
بر انگیز</w>
بر آور
بد نی</w>
بد ش</w>
بد بخت</w>
ببر یم</w>
بان گ</w>
بازرگ انان</w>
باز ویش</w>
باز ده</w>
با ع</w>
ب گیریم</w>
ب گ
ب کنیم</w>
ب کنند</w>
ب کار
ب ه‌ها</w>
ب نف
ب مانند</w>
ب غل
این‌ رو</w>
این ده‌ای</w>
ایر انی</w>
ایج اد
ای وان
ای ز</w>
اولی ویه</w>
اولوی ت‌های</w>
اور اک
انس ان‌ها</w>
انس انیت</w>
اندی شی
انداخت م</w>
انتظ ار
ان عط
ان ده</w>
امار ات‌
امارات‌ متحده‌عربی</w>
ام ‌تر</w>
الکترونی ک</w>
ال هی</w>
ال ن</w>
ال ف
ال شر
اق بال</w>
اف س
اف رو
اع ص
اع تیاد</w>
اط ه</w>
اط اعت</w>
اسما عی
اسر ار
است و</w>
است ه</w>
اس میت</w>
اس رار</w>
اس امه</w>
از م</w>
اری ‌بود</w>
ارتک اب</w>
ار غ
ار اضی</w>
اختی ارات</w>
اختلا فات</w>
اح ی
اح اطه</w>
اتاق‌ خواب</w>
ا شان</w>
آگ اه
آماده‌ سازی</w>
آم ده‌ام</w>
آلو ده</w>
آفریق ایی</w>
آفریق ای</w>
آش فته</w>
آز مون</w>
آر تور</w>
آتش‌ بس</w>
آ گو
آ شتی</w>
آ رو
w w
th e</w>
s a
i r
i f
h r
an d
5 4</w>
3 7</w>
3 4</w>
19 6
1 20</w>
‌و ساز</w>
‌شده‌ از</w>
‌الع اده‌ای</w>
‌ شده‌بود</w>
یک م</w>
یو ن
یافت ه‌های</w>
یافت ند</w>
ی من</w>
گی ل</w>
گی اهان</w>
گو ها</w>
گو سف
گو ئی</w>
گن اه
گفت ید</w>
گزار ش
گری فن
گریفن دور</w>
گری ز</w>
گرد انی</w>
گر ما</w>
گ انش</w>
گ امی</w>
کی سه</w>
کوهست انی</w>
کوتو زو
کوتوزو ف</w>
کو ی</w>
کو ل
کن ش</w>
کن دوز</w>
کمک‌ رسانی</w>
کمپ انی</w>
کم ل</w>
کلا ه‌
کان ال‌های</w>
کالی نز</w>
کال اها</w>
کاردی نال</w>
کار بری</w>
کا شت</w>
ک فش</w>
ک امی</w>
چپ ش</w>
چوب دست
چ کار</w>
چ من
چ اه</w>
چ ادر</w>
چ ادر
پی‌ در
پی‌در پی</w>
پیش‌ برد</w>
پی شه</w>
پو ف</w>
پسر ان</w>
پردا ز
پ و</w>
پ ه</w>
پ سند</w>
پ تر
وی روس</w>
ولوژ یکی</w>
وسی ع</w>
ور ها</w>
وان مود</w>
وال دی
وال انتین</w>
واط ف</w>
وا کس
و سی</w>
و به</w>
ه‌ نامه</w>
هی ل</w>
همین طور</w>
همیش گی</w>
همکار انش</w>
هم بستگی</w>
هفت گی</w>
هفت ه‌ای</w>
هد فی</w>
ه ف
ه ریت</w>
ه ان
ه اش</w>
نی ‌های</w>
نی کی</w>
نی و</w>
نی اید</w>
نگه بان</w>
نگر ی</w>
نگر انی‌های</w>
نگ فته</w>
نوز اد</w>
نو جوان</w>
نمی‌دان ند</w>
نمی‌ کردند</w>
نمی‌ شناس
نمی‌ دید</w>
نمی‌ تر
نمو دار</w>
نف همی
نظر بایف</w>
نشی من</w>
نزدی ک‌
ندی ده‌بود</w>
ند را</w>
نجو ا</w>
نام ‌
نا خدا</w>
نا تور</w>
ن کردند</w>
ن ق</w>
ن شده‌اند</w>
ن رسید</w>
ن دید</w>
ن خواهند</w>
م‌ ال
می‌شناس د</w>
می‌تر سم</w>
می‌افت ند</w>
می‌ گشت</w>
می‌ مانند</w>
می‌ سازند</w>
می‌ رفتم</w>
می‌ دیدم</w>
می‌ خن
می و
می ث
مکان یکی</w>
موقعی تی</w>
مواظ ب</w>
مو گا
مو سی</w>
من عقد</w>
من شی</w>
من شا</w>
مغرو ر</w>
مغ زی</w>
معتق دم</w>
مع کوس</w>
مع ط
معط وف</w>
مع دنی</w>
مع اینه</w>
مع اه
مطل ع</w>
مطال بی</w>
مضطر ب</w>
مصر فی</w>
مشت رک
مش کی</w>
مسی ول</w>
مسی ری</w>
مسی رهای</w>
مسکو نی</w>
مسا فر</w>
مس اله‌ای</w>
مز بور</w>
مر بیان</w>
مدی ریتی</w>
مدی ر
مدل ‌های</w>
محتم ل</w>
مح بتی</w>
مح اص
متغیر های</w>
متع دد</w>
مبا ح
ماهی گیری</w>
ماه ر</w>
مادر ان</w>
ماتری س</w>
م مل
م زار
مزار ع</w>
م خارج</w>
لی ر</w>
لو سی</w>
لو ح
لنگ دان</w>
لع نتی</w>
ل که</w>
ل ور</w>
ل ود</w>
ل فور</w>
قیمت ‌های</w>
قور باغ
قو س</w>
قل م
قف س</w>
قط بی</w>
ق ‌ال
ق شون</w>
ق تل‌های</w>
فولا د</w>
فهر ستی</w>
فل ور
فل سف
فعالی ت‌ها</w>
فرسو ده</w>
فرانسوی ان</w>
فر ش</w>
فا تر</w>
ف ‌بود</w>
ف ین</w>
ف لی
ف اح
غم گین</w>
غ لام</w>
غ ش</w>
غ رید</w>
غ د</w>
عی نی</w>
عمو ما</w>
عر ض
عر شه</w>
عبدالر ح
عاق ل</w>
عاد ت‌
ع واطف</w>
ع قب
ع ش</w>
ظ هور</w>
ظ هر
طو فان</w>
ط نا
ط لاق</w>
ط فره</w>
ط رات</w>
ض خ
ض بط</w>
صندلی ‌های</w>
صلح ‌آمیز</w>
صرفه‌ جویی</w>
صح بتی</w>
ص الح</w>
شی ش
شکست ‌
شهر ها</w>
شهر داری</w>
شنی ده‌بود</w>
شم ار
شلو غ</w>
شفاف یت</w>
شری ک</w>
شده‌ و</w>
شخص ی
شت ن</w>
شبی ه‌سازی</w>
شاه دان</w>
شان ه‌اش</w>
شان سی</w>
ش د
ش اع
سی گن
سی ف</w>
سو سی
سو استفاده</w>
سو اران</w>
سه‌ بعدی</w>
سر قت</w>
سر عتی</w>
ست و
سال خورده</w>
ساع ت‌های</w>
ساع ت‌ها</w>
ساز نده</w>
ساخت ‌وساز</w>
ساخت ه‌است</w>
س ویش</w>
س همیه</w>
س غد</w>
زی ست‌
زنج یره</w>
زنج یر</w>
زن ‌های</w>
زمان ‌های</w>
زل ز
زلز له</w>
ز ه‌ها</w>
ری س</w>
ری ری</w>
ری اض
رک ورد</w>
رو یه</w>
رسان ید</w>
رس ند</w>
رب ط</w>
راهن ما</w>
راه بردهای</w>
راه برد</w>
ر نزمه</w>
ر مز</w>
ر مز
ر جو
ذ کر
دی دنش</w>
دپارت مان</w>
دوست‌داشت نی</w>
دنی ایی</w>
دل ت</w>
دف ع</w>
دعو ا</w>
دشمن ان</w>
دسته‌ جمعی</w>
در می</w>
در مورد</w>
در این</w>
دختر م</w>
دای ی‌
دانش گاهی</w>
دار نده</w>
دائ م</w>
د ‌شده‌
د فاتر</w>
د غ
خی ن</w>
خی س</w>
خون‌ آش
خوشبخت انه</w>
خورشی دی</w>
خواست ه‌است</w>
خو نی</w>
خشم گی
خر مگس</w>
خداحافظ ی</w>
خا طرات</w>
خا طرا
خ ندان</w>
خ فه</w>
خ شان</w>
خ الی
حق ایق</w>
حش رات</w>
ح ریم</w>
ح امل</w>
جم اه
جماه یر</w>
جغرافی ایی</w>
جشنو اره</w>
جس می</w>
جادو ی</w>
جا ه‌ای</w>
جا ع</w>
ج یم</w>
ج لال</w>
ج شن
ج دید
ج او
تکنی ک‌های</w>
تک ث
توافق نامه</w>
تو ماس</w>
تو م</w>
تو لد</w>
تو ل
تو ام</w>
تنف س</w>
تن بیه</w>
تق لا</w>
تفاو ت‌های</w>
تفاه م‌
تف نگ
تع لیم</w>
تص ورش</w>
تش ریح</w>
ترک من</w>
تر انه</w>
تج زیه</w>
تبلیغ اتی</w>
تبلی غ</w>
تبر یک</w>
تاث یری</w>
تاب ستانی</w>
تا جر</w>
تا بوت</w>
ت نگه</w>
ت می</w>
ت سا
ت زی
بی‌ نوا</w>
بی‌ نهایت</w>
بی م</w>
بی لیون</w>
بی اد</w>
بی ابد</w>
بچ ه‌ای</w>
بو ک</w>
بو ن</w>
بو لو
بو سید</w>
بو اس
بواس طه</w>
بنشی ند</w>
بندی ‌شده</w>
بنا بر</w>
بن زین</w>
بسی ار
بس ط</w>
بری ده</w>
برگ ‌های</w>
برگ شته</w>
بر ید</w>
بر کنار</w>
بر هم</w>
بدان ید</w>
بد خشان</w>
بخو اند</w>
بخشی دن</w>
بخ ش‌هایی</w>
بتوان یم</w>
ببی نی</w>
ببر ید</w>
بای وا</w>
باز ه</w>
باز مان
بار دار</w>
با ‌ین</w>
با ک</w>
با ه‌اش</w>
با هم</w>
با ه</w>
با م</w>
ب گیر</w>
ب وریس</w>
ب نگ
ب مبار
ب شوند</w>
ب شنود</w>
ب شم</w>
ب در
این‌ که</w>
ایدئ ولوژی</w>
ای ی
ای ده‌
اکسی ژن</w>
اپ را
اون ها</w>
اوراک زی</w>
او کر
او ات</w>
اه الی</w>
انقلا بی</w>
انج امید</w>
انتق الی</w>
انتظ ارات</w>
ان در
ان ات</w>
امی ل</w>
امپرا طور</w>
ام ‌ها</w>
ام ور
ام ضای</w>
ام دند</w>
ام بایف</w>
الی وم</w>
ال جزایر</w>
ال اح
اقدا ماتی</w>
افت ه</w>
افت د</w>
اف کارم</w>
اطلا ع
اص د</w>
استث نای</w>
است یو</w>
است ار
اس کی</w>
اس ب‌های</w>
اس ب‌
اس بی</w>
از ن</w>
از ات</w>
اخ م</w>
اخ طار</w>
احتی اطی</w>
اح مدی
اح تر
اج ساد</w>
اتفاق‌ افتاده</w>
ات ل</w>
ابی د</w>
ا مین</w>
ا خوان</w>
ا تمام</w>
ا ا
آگ هی</w>
آور ده‌است</w>
آن ست</w>
آن جل
آن جا‌بود</w>
آمو خت
آمریک ای</w>
آل بر</w>
آش پز</w>
آسی ایی</w>
آزاد سازی</w>
آری ثا</w>
آئورلی انو</w>
آ هی</w>
آ تو
ww w</w>
w o
t r
o u
m s
l t</w>
i p
f p</w>
e s</w>
c r
c p
an d</w>
a l</w>
a c</w>
9 5</w>
7 6</w>
4 9</w>
4 3</w>
2 50</w>
199 7</w>
198 0</w>
0 000</w>
‌ه ائی</w>
‌ نژاد</w>
یهو دیان</w>
ی کی
ی دند</w>
ی دن</w>
ی اسر</w>
گوی د</w>
گو نه‌های</w>
گو ل</w>
گو اه
گری فی
گری س</w>
گردش گران</w>
گرا ف
گر ای</w>
گر انت</w>
گذاشت ه‌بودند</w>
گذ اری
گ م‌
گ مان
گ ل‌
گ له</w>
گ س</w>
گ زاری</w>
گ ام‌های</w>
گ اتی</w>
کی فی</w>
کوچ کش</w>
کوتاه‌ مدت</w>
کو شید</w>
کو ش
کو بید</w>
که‌ ان</w>
کن ‌ین</w>
کم ‌بود</w>
کلاری سا</w>
کل ماتی</w>
کشور هایی</w>
کشت ه‌شده</w>
کشت ه‌اند</w>
کس ل</w>
کر یم</w>
کر زی</w>
کر دهای</w>
کت ان</w>
کان دید
کاندید ای</w>
کاغذ ی</w>
کار ی
کار وان</w>
کار های</w>
کار ه</w>
کار ایی</w>
ک یم</w>
ک ید</w>
ک ه‌بود</w>
ک هام</w>
ک ز
ک تا
ک است</w>
ژ ی
چشم گیر</w>
چش می</w>
چ ‌
چ گی</w>
چ ندی</w>
چ طوری</w>
چ انه</w>
چ اب
پیچی ده‌تر</w>
پیش‌ بی
پیشنه ادها</w>
پید ایش</w>
پیا پی</w>
پی مود</w>
پی مو
پی ری</w>
پی را
پو سی
پنجر ه‌ها</w>
پل ه‌های</w>
پشت ش</w>
پرو از
پرست اری</w>
پرست ار</w>
پردا خته</w>
پر هی
پذیر فته</w>
پذ ی
پای گاه‌های</w>
پای گاه‌
پاک ی
پان صد</w>
پاس خ‌های</w>
پارام تر</w>
پ گاتی</w>
پ هن
پ نا
پ ن</w>
پ لا
پ زی</w>
پ تو</w>
وی دیو</w>
وی ت
وسا ئل</w>
وزی ران</w>
وز را</w>
ور ‌بود</w>
واک سینه</w>
وا ک</w>
وا ح</w>
و ود</w>
و له</w>
و لا</w>
و بلا
ه‌ه ایم</w>
ه‌ گیری</w>
ه‌ گاه</w>
ه‌ داری</w>
هواپی مایی</w>
هو لت</w>
هو ش
هو ان
همه‌ جا</w>
همان گونه</w>
هم چنانکه</w>
هل ند</w>
هفت ‌
هفت اد</w>
هشت م</w>
هر ه</w>
هر مای
هدف مند</w>
هاگوارت ز</w>
هار ولد</w>
ها گرید</w>
ه ق
نیافت ه</w>
نی اورد</w>
نی امد</w>
نگه‌ داشته</w>
نو می
نو اخت
نو ا
نه ض
نمی‌ بی
نمایش گاه‌های</w>
نمای شی</w>
نقل‌ مکان</w>
نق دی
نق اب</w>
نش دند</w>
ندی ده‌ام</w>
ند هد</w>
نج ار</w>
نتی نو</w>
نان و</w>
نامز دهای</w>
نام شخص</w>
نا چیز</w>
نا دی</w>
ن گفت</w>
ن کنی</w>
ن کا</w>
ن می</w>
ن شت</w>
ن ست</w>
ن داده‌اند</w>
ن داده</w>
می‌گذشت ند</w>
می‌نوی سد</w>
می‌ز نی</w>
می‌ر سه</w>
می‌تو نه</w>
می‌آ یم</w>
می‌ یابند</w>
می‌ گری
می‌ گذاشتند</w>
می‌ کنن</w>
می‌ کردید</w>
می‌ نگر
می‌ نشست</w>
می‌ شناخت</w>
می‌ رفتیم</w>
می‌ رسیدند</w>
می‌ بن
می‌ اورد</w>
مو له</w>
مو ج
مهند سان</w>
مهم انان</w>
منصف ه</w>
منصف انه</w>
منح نی</w>
مناظ ر</w>
من صرف</w>
من ت</w>
ملاحظ ه‌ای</w>
مل ت
مقص ود</w>
معن است</w>
معج زه</w>
مع نایی</w>
مع ماری</w>
مشت ر
مرد مان</w>
مرد انه</w>
مرا ج
مراج عت</w>
مر خص
مر حو
مرحو م</w>
مر اسمی</w>
مح مول
مح فو
متح رک</w>
مت ق
مت عهد</w>
مباح ث
مای کل</w>
مای کرو
ماک زیم</w>
مان ندی</w>
ماس ا
مادر ی</w>
ما ه‌ها</w>
ما د</w>
م شت</w>
لی ‌بود</w>
لی زی</w>
لگ د</w>
لول ه‌های</w>
لط یف</w>
لب ‌های</w>
لان دو</w>
لا حی
ل کنت</w>
ل وی</w>
ل ور
ل ه‌های</w>
ل ن</w>
قی ‌بود</w>
قی متی</w>
قی ت</w>
قوی ا</w>
قل مرو</w>
قطر ه</w>
قش نگی</w>
قدر تی</w>
قانو نگذ
ق ولی</w>
ق له</w>
ق رو
ق را
ق الب
فیر فاکس</w>
فی لی
فلور نتینو</w>
فل زی</w>
فض ل</w>
فس کی</w>
فری ادهای</w>
فروش ندگان</w>
فروش نده</w>
فرستا دند</w>
فرست د</w>
فر به</w>
فر ام
فت ح</w>
فای ده‌ای</w>
فارغ‌ال تحصیل</w>
فا ف</w>
فا تی</w>
ف ‌شده</w>
ف یه</w>
ف لیپ</w>
ف ق</w>
ف تو
ف ای</w>
ف از</w>
غال ‌
غ لی
غ لات</w>
غ ض
عکس‌ال عمل</w>
عکس ‌های</w>
عمر م</w>
عل ل</w>
عزی مت</w>
عالی‌ رتبه</w>
عالی‌ جناب</w>
ع ‌تر</w>
ع لو
ع ری
ع ادی
طل سم</w>
طع نه</w>
طری قی</w>
طرف ین</w>
طرا حی
ط ه‌ای</w>
ط فل
ط اق</w>
ض منی</w>
ض ریب</w>
ض د
صدا های</w>
ص عود</w>
ص حر
ص اع
شی ری</w>
شک افی</w>
شواه دی</w>
شو نو</w>
شو ت</w>
شنی دی</w>
شنا ختی</w>
شع به</w>
شری عت</w>
شج اعت</w>
شای عات</w>
شانگ های</w>
شار ک</w>
شاد مان</w>
ش مرده</w>
ش ش
ش دگان</w>
ش بان
ش ام
س‌ آنجل
سیگن ال‌های</w>
سی ری
سی است‌
سو ندرا</w>
سو ف</w>
سو زان
سو ت</w>
سو ابق</w>
سهام داران</w>
سنگ ‌ها</w>
سر گردان</w>
سر لشکر</w>
سر زمین‌های</w>
سر به</w>
سخ نی</w>
سازی ‌های</w>
س گ‌ها</w>
س کو</w>
س ناتور</w>
س لا
س فت</w>
س انت
زیست‌ محیطی</w>
زی ‌های</w>
زی ستی</w>
زو ج</w>
زندگی ش</w>
زمان ‌بندی</w>
ز نا
ز مست
ز دی</w>
ز ده‌است</w>
ز بورگ</w>
ز او
ز اس</w>
ریک و</w>
ریش ه‌
ری خته‌بود</w>
روشن ایی</w>
روز گار</w>
روبه‌ رو</w>
رو ک</w>
رو به</w>
رو باه</w>
رقاب ت‌های</w>
رق ت‌
رفت اری</w>
رشو ه</w>
رس انی
رجو ع</w>
رب ایج
ربایج ان</w>
ران ندگان</w>
ران دند</w>
رادی واک
ر قی
ر فی
ر فق
ر به‌
ربه‌ کا</w>
دیو اری</w>
دیو اره‌ای</w>
دی ده‌ام</w>
دک تر
دول ت‌ها</w>
دو خته</w>
دندان ‌هایش</w>
دن ا</w>
دفتر چه</w>
دع وی</w>
دست‌ ساز</w>
دست اور
دری چه</w>
درش که</w>
درخ شش</w>
درخ تی</w>
درج ه‌
درا زی</w>
در گاه</w>
در سته</w>
در بار</w>
دختر انه</w>
داو طلب</w>
دانش گاه‌ها</w>
دان تس</w>
دار ها</w>
دا ون</w>
د گیت</w>
د لی</w>
د ایر
د استان
د از</w>
خویشاو ند</w>
خون سرد</w>
خود مون</w>
خواست ند</w>
خواب گاه</w>
خو ست</w>
خو ابی</w>
خن ث
خلا ل</w>
خطر ناکی</w>
خشون ت‌های</w>
خش خاش</w>
خر ده</w>
خج ند</w>
خال د</w>
خار جی
خ لو
خ لا</w>
خ طور</w>
خ ال</w>
خ است</w>
حی ث</w>
حسا ب‌های</w>
حال م</w>
حاض رم</w>
حاض ر
ح کام</w>
ح شره</w>
ح د
ح امد</w>
ح اجی</w>
جی بش</w>
جوی د</w>
جوی انی</w>
جو لیا</w>
جو اه
جو ان‌تر</w>
جن ایات</w>
جمهوری‌ خواه</w>
جست ‌و
جز ئی</w>
جر دن</w>
جذ ابی
جای یکه</w>
جان ور</w>
جام ه</w>
ج مل
ج لی
ج ل</w>
ث اب
تیو پی</w>
تکث یر</w>
تک امل</w>
تولی دی</w>
توری سم</w>
تور ن
توج یه</w>
تواف قی</w>
تو ده</w>
تنار دیه</w>
تم ام‌تر</w>
تم اس
تلف ن‌های</w>
تل گراف</w>
تق لب</w>
تق ص
تف اهم</w>
تعوی ض</w>
تع ج
تع امل</w>
تظاهر کنندگان</w>
تص ریح</w>
تسا وی</w>
تز ل
ترا بری</w>
تر سیم</w>
تر بی
تدو ین</w>
تدری س</w>
تخ م‌
تحلیل گران</w>
تحصی لات</w>
تب سمی</w>
تب دی
تا گ</w>
تا س</w>
ت کان
ت نیس</w>
ت مسخر</w>
ت ظاهر</w>
ت سریع</w>
ت بار</w>
ت ابی</w>
بی‌ ص
بی‌ شک</w>
بیندا زد</w>
بیمار ستانی</w>
بیم اری‌های</w>
بی ‌ها</w>
بی گناه</w>
بی گانه</w>
بی ر
بی ایم</w>
بی اندا
بی امو
بی اب
بچ ه‌
بهره‌ وری</w>
بهره‌ مند</w>
به شون</w>
به شت</w>
بلی ط</w>
بل ژ
بل ایای</w>
بغ ل</w>
بری تانی
برسان ند</w>
برانگی خت</w>
بر دار</w>
بر خی
بر جست
بر ترام</w>
بر ایشان</w>
بر اش</w>
بذ ر</w>
بذ ار</w>
بدان ند</w>
بد نه</w>
بد نم</w>
بخوان ید</w>
بخوان م</w>
ببر م</w>
بان ش</w>
بال ا
بازی گران</w>
بازمان دگان</w>
باز گشایی</w>
باز خورد</w>
باز جویی</w>
باز ان</w>
بار ش</w>
با تلر</w>
با ب‌
ب پیو
ب نی</w>
ب قای
ب ف
ب دست‌آمده</w>
ب جنگ
ب اس
ایت الیایی</w>
ایال تی</w>
اوکر این</w>
اوم دی</w>
اوس ط</w>
او م</w>
او لو
اه دا</w>
اند را</w>
انتخ اب
انت ان</w>
انبا شته</w>
ان ور</w>
ان مان</w>
ام علی</w>
ام امعلی</w>
الی ف</w>
الکس ان
ال کل</w>
ال حق</w>
اق ‌
افرا ط</w>
افتا دن</w>
اعلامی ه</w>
اع ماق</w>
اع لان</w>
اع ضا</w>
اض ع</w>
اش عه</w>
استر داد</w>
اس ازی</w>
ازدواج ‌
ازب ک‌ها</w>
از ‌ان</w>
از هر</w>
ارو ف</w>
ارو س</w>
ارائ ه‌شده</w>
ار ستان</w>
ار زشی</w>
ار تر</w>
احی ای</w>
احمدی ‌نژاد</w>
احتر امی</w>
اج ر</w>
اب لا</w>
ائ و</w>
ا گ
ا تیوپی</w>
آژ انس‌های</w>
آن اتو
آم ده‌اند</w>
آفت ابی</w>
آسیب‌ پذیر</w>
آسی بی</w>
آسو دگی</w>
آس مان‌ها</w>
آس ان‌تر</w>
آزاد انه</w>
آذ ربایجان</w>
آتو ز</w>
آت امبایف</w>
آ هنگ
آ شنا
آ دا
آ بر
s s</w>
s a</w>
q u
n o
l l
io n</w>
h tt
g a
f i
en t
7 1</w>
7 00</w>
5 9</w>
5 2</w>
5 1</w>
2 6
199 6</w>
1 40</w>
1 30</w>
1 000</w>
0 9</w>
0 8</w>
0 7</w>
‌شده‌ به</w>
‌ال منافع</w>
‌ پذیری</w>
‌ نشده‌است</w>
‌ زده</w>
‌ زار</w>
‌ ریز</w>
‌ انگیز</w>
ی‌ شان</w>
ی‌ ام</w>
یافت ه‌اند</w>
ی راتی</w>
ی خ‌
ی ان
ی اب</w>
گی لاس</w>
گی سو
گو گل</w>
گو دال</w>
گفت یم</w>
گستر ده‌ای</w>
گزارش‌ نشده‌است</w>
گرد ن‌
گر س
گرس نه</w>
گذران دن</w>
گا ه‌هایی</w>
گا زی</w>
گ ه
گ می</w>
گ لا
گ زار</w>
گ ای
کی شوت</w>
کوی تی</w>
کو هی</w>
کو هت</w>
کنن ده‌بود</w>
کن تس</w>
کلاس ‌های</w>
کلاس یک</w>
کل اهش</w>
کل ار</w>
کشاور ز</w>
کش ‌
کس ون</w>
کری س</w>
کره‌ شمالی</w>
کر سی</w>
کتور ها</w>
کت بی</w>
کان س</w>
کان دی
کارآفری نی</w>
کار گردان</w>
کار خانه‌ها</w>
کار بردهای</w>
کار آمد</w>
کات الی
ک ون</w>
ک وا
ک هن
ک اک
ک او
ک انه</w>
ک افه</w>
ژ ول
چو پ
چو ست</w>
چهر ه‌ای</w>
چند گانه</w>
چشم گیری</w>
چس بید</w>
چرخ ش</w>
چاق و</w>
چ کمه‌های</w>
چ ل</w>
چ ستر</w>
پی‌ گرد</w>
پیوست ه‌است</w>
پیرا هنش</w>
پیام دهای</w>
پی کار</w>
پی رو
پو شی</w>
پو ستان</w>
پو زخ
پهن ای</w>
پهلو ان</w>
پلاست یکی</w>
پشی مان</w>
پشت ی</w>
پس‌ انداز</w>
پر سه</w>
پر ای
پدر ت</w>
پای انه</w>
پاس خی</w>
پا پ</w>
پا شی</w>
پ یک</w>
پ کتی
پ سن
پ ات
وی ‌بود</w>
وی نر</w>
وی ران
وی ایی</w>
وو ده
ووده اس</w>
وق ه</w>
وق ف</w>
وق ار</w>
وفا داری</w>
وضعی تی</w>
وسو سه</w>
وح ش</w>
وجو ه</w>
وابست گی</w>
وا ژ
و نی
و زید</w>
و جد</w>
و ث
و با</w>
و ایت</w>
ه‌ ترین</w>
ه‌ ای
هیو لا</w>
هیات‌ مدیره</w>
هی کل</w>
هوان وردی</w>
هند سی</w>
هم‌ کار</w>
همین‌ طور</w>
هفت ه‌نامه</w>
هر گاه</w>
ه یر
ن‌ بودند</w>
نیاز من
نی ستیم</w>
نی ترو
نگه‌ داشته‌بود</w>
نگه بانان</w>
نگر ان‌
نکر دنی</w>
نوی ن</w>
نوا خت</w>
نو س</w>
نو ای</w>
نهفت ه‌است</w>
نمی‌ یافت</w>
نمی‌ فهمید</w>
نمی‌ زند</w>
نمی‌ زد</w>
نمی‌ رفت</w>
نمی‌ دادند</w>
نمی خو
نمای ش‌های</w>
نم اها</w>
نقط ه‌
نقدی نگی</w>
نق ص</w>
نظرس نجی</w>
نظر شان</w>
نظر تان</w>
نش نال</w>
نش ستی</w>
نش ری
نس ب</w>
نزدی ک‌ترین</w>
نز ده</w>
نز اع</w>
ندی ا</w>
نتیج ه‌ای</w>
نت ایج
نتایج ی</w>
ناراح ت‌کننده</w>
نار ض
نارض ایتی</w>
نا طی
نا شناخته</w>
نا در</w>
ن ‌هایی</w>
ن کنیم</w>
ن کرده‌بودم</w>
ن چ</w>
ن وریس</w>
ن ها</w>
ن مانده‌بود</w>
ن مانده</w>
ن ستم</w>
ن زی</w>
ن دند</w>
ن خواست</w>
ن جیب</w>
ن جا</w>
ن ثار</w>
ن بی
می‌گذ راند</w>
می‌پو شید</w>
می‌فر ستم</w>
می‌دو نه</w>
می‌خوان دند</w>
می‌خواست یم</w>
می‌خو ای</w>
می‌بار ید</w>
می‌آور م</w>
می‌ گیریم</w>
می‌ گشتند</w>
می‌ گردید</w>
می‌ کرده‌است</w>
می‌ چرخد</w>
می‌ نمودند</w>
می‌ نشستند</w>
می‌ فشرد</w>
می‌ شنید</w>
می‌ سوخت</w>
می‌ رسند</w>
می‌ ده</w>
می‌ افکند</w>
میهم انی</w>
میخو اد</w>
میث اق</w>
می ک
می ه
می خ
مک ش</w>
مک ثی</w>
موفقی ت‌های</w>
موض عی</w>
مواق عی</w>
مو عظ
مهمان خانه</w>
مهاج ران</w>
منص وب</w>
من ق
من دتر</w>
مقی اس
مقد ماتی</w>
مق دور</w>
مق دم</w>
مق بره</w>
مق اصد</w>
مف هو
مغ ناطی
معلو لیت</w>
مع اش</w>
مطل بی</w>
مط اب
مصرف ‌کننده</w>
مشک لاتی</w>
مشخص ‌بود</w>
مشترک ‌المنافع</w>
مشت ی</w>
مش ورت</w>
مسی ری
مزاح مت</w>
مری ض</w>
مردا ک</w>
مرخص ی</w>
مرتک ب</w>
مر مو
مر جع</w>
مدر سه‌ای</w>
مد نظر</w>
مخت صری</w>
محی ط‌های</w>
محص ور</w>
محدودی ت‌های</w>
محدو د
محبو س</w>
محاص ره</w>
مح کمی</w>
مجمو عه‌های</w>
مجر مان</w>
مج زا</w>
مج اور
مج اه
متو لد</w>
متو قف
مت نفر
مت مای
متمای ز</w>
مت لا
مبا درت</w>
مایکرو سا
مایکروسا فت</w>
مای ید</w>
مای لی</w>
ماه انه</w>
مان ی
مان عی</w>
مان ت</w>
مال ا
مالا کند</w>
ماشی ن‌های</w>
ماسا چوست</w>
مادر ت</w>
م کال
م چ</w>
م وری
م فق
م فر
م طرح
م سو
م زد</w>
لی کر
لی نتون</w>
لو ک
لغ ت</w>
لع نت</w>
لر زید</w>
لحظ ات</w>
لای دگیت</w>
لاز م‌بود</w>
لا تین</w>
ل ون</w>
ل نگ</w>
ل س‌آنجل
ل خت</w>
ل بان</w>
ل انی</w>
ق‌ال اوسط</w>
قورباغ ه</w>
قو م</w>
قلب م</w>
قطع نامه</w>
قزاق ستانی</w>
قر ه</w>
قدر تش</w>
قان ع</w>
قالب ‌های</w>
قابل‌ ملاحظه‌ای</w>
ق ‌ها</w>
