#version: 0.2
t h
i n
th e</w>
a n
e r
e d</w>
r e
o u
a r
e n
t i
in g</w>
o n
t o</w>
an d</w>
e r</w>
o f</w>
o r
s t
o n</w>
i n</w>
a l
i t
a t</w>
e s</w>
i s</w>
a s</w>
r o
a n</w>
a t
h a
e l
h e</w>
i l
o r</w>
a c
i c
w h
e n</w>
i s
o m
a s
e c
a l</w>
e s
th at</w>
i t</w>
u r
n o
l y</w>
v e</w>
s a
` `</w>
l i
a ti
r i
l o
th e
w as</w>
s i
en t</w>
l e
u s
o l
u n
b e
f or</w>
a d
a b
l e</w>
g h
i d</w>
a m
er e</w>
c h
w it
e m
t s</w>
a g
e v
wit h</w>
y o
yo u</w>
h i
p ro
s u
o p
d i
b u
h is</w>
c on
c e</w>
i r
p o
l d</w>
c om
e x
a k
t r
b e</w>
a y</w>
ou n
m e</w>
s e
sa id</w>
ati on</w>
er s</w>
s h
no t</w>
' s</w>
d e
ha d</w>
ou ld</w>
f or
ou t</w>
n e
ar e</w>
on e</w>
a r</w>
h er</w>
t ed</w>
m o
al l</w>
s he</w>
bu t</w>
th er</w>
a p
s t</w>
gh t</w>
t er
g o
ti on</w>
ha ve</w>
s e</w>
v er
s p
on s</w>
th is</w>
u l
b y</w>
p re
t o
f ro
q u
f f
d o
the y</w>
p l
i st
fro m</w>
it y</w>
d s</w>
i r</w>
c h</w>
r a
m e
w or
p e
t er</w>
s o</w>
i d
i m
ou r</w>
w e</w>
at e</w>
il l</w>
p ar
h o
h e
p er
a d</w>
p or
hi m</w>
t h</w>
b o
e t</w>
es s</w>
w ere</w>
m y</w>
c i
a f
m ent</w>
m in
w n</w>
d u
t ur
w ill</w>
t ing</w>
ic h</w>
t w
m or
c o
th ere</w>
l a
the ir</w>
s om
g h</w>
r u
d ing</w>
wh ich</w>
a in
no w</w>
g r
ou r
in g
u p</w>
l ed</w>
w ould</w>
f i
t y</w>
f e
wh at</w>
g i
a y
m an
t e
s el
an t</w>
si d
us t</w>
k e</w>
i f</w>
ic e</w>
c an</w>
as t</w>
el l</w>
th ing</w>
g e</w>
h as</w>
d ed</w>
be en</w>
y e
wh o</w>
al ly</w>
ol d</w>
a in</w>
mor e</w>
m il
o d</w>
k ed</w>
s ec
wh en</w>
en t
n o</w>
the m</w>
m ar
o ther</w>
ab out</w>
ou gh</w>
ar d</w>
v er</w>
p u
ac e</w>
a u
d er</w>
v i
en ce</w>
d is
c l
' t</w>
u s</w>
k s</w>
ab le</w>
it s</w>
d o</w>
m an</w>
d ay</w>
c oun
en ts</w>
w e
ar y</w>
ou s</w>
ak e</w>
in e</w>
on g</w>
es t</w>
r y</w>
k ing</w>
at ed</w>
ac k</w>
d er
re c
f ir
w ay</w>
in ter
ev er</w>
s o
pre s
oun d</w>
us e</w>
n i
on al</w>
p r
ati ons</w>
ur e</w>
ti c
c ould</w>
b er</w>
s ed</w>
in to</w>
s er
th en</w>
an ce</w>
lo o
ti es</w>
t ri
ti me</w>
e st
li ke</w>
k e
m u
b l
ag e</w>
st r
f u
w i
f o
th an</w>
sel f</w>
ar s</w>
ist an</w>
m on
p p
o ff
ev er
b ec
an y</w>
g u
g re
g y
som e</w>
t en
f a
l l</w>
pe op
c or
tw o</w>
peop le</w>
am e</w>
c re
f in
a re
ad e</w>
al i
y our</w>
re e</w>
v ed</w>
u d
com p
e l</w>
ne w</w>
el y</w>
n ed</w>
ho w</w>
af ter</w>
on ly</w>
g e
2 0
com m
a m</w>
du c
i c</w>
a z
ec t</w>
v es</w>
u m
o ver</w>
ing s</w>
ti ons</w>
w s</w>
v ing</w>
t a
st e
es e</w>
s ti
mo st</w>
d ec
t e</w>
p s</w>
con t
it e</w>
i es</w>
y ing</w>
d re
an g
h ar
c e
ou ght</w>
b r
d id</w>
for m
sh o
b le</w>
t u
n ing</w>
h el
em ent</w>
go ver
w ell</w>
f l
es s
ay s</w>
c es</w>
p ol
al s</w>
re por
gover n
l ing</w>
i g
m a
o se</w>
min ist
se e</w>
g en
an d
ver y</w>
m i
a use</w>
som e
ic i
il e</w>
fir st</w>
s y
for e</w>
j o
j ust</w>
m is
r e</w>
a v
or s</w>
an s</w>
g o</w>
ev en</w>
p t</w>
at t
f ac
wh ere</w>
is h
su ch</w>
re n
th r
as e</w>
en ti
n ati
d es
al so</w>
th ese</w>
d on</w>
b ack</w>
y es</w>
wi th
lo w
th in
c ri
k now</w>
do wn</w>
t ly</w>
in v
c al
si on</w>
pro v
en d</w>
d ev
f e</w>
c ar
b an
re s</w>
ac h</w>
sh ould</w>
g et</w>
o b
o f
o c
m s</w>
po s
i a</w>
be fore</w>
com e</w>
o m</w>
it t
c en
b el
ac h
0 0</w>
l s</w>
c lo
as s
t re
s hi
m at
ou s
fu l</w>
tr y</w>
bec ause</w>
p ri
govern ment</w>
f r
m ade</w>
c ha
s s</w>
p ak
ex p
e gy
c ur
wor k</w>
w ar
u p
t t
s ha
d n</w>
w at
m ay</w>
thr ough</w>
lo w</w>
e d
sid e</w>
h ere</w>
at es</w>
in ce</w>
b ro
v is
e en</w>
w a
s ur
c er
ch o
nati onal</w>
i e
f t</w>
us ed</w>
o k</w>
k il
i l</w>
wor ld</w>
th ree</w>
c our
is e</w>
i z
y s</w>
20 0
il y</w>
di ff
at ing</w>
op er
er ed</w>
ch il
m ake</w>
an ts</w>
n ever</w>
l ong</w>
id e</w>
st ar
m em
is t</w>
go od</w>
th ose</w>
l itt
go ing</w>
d em
sp ec
w om
tw een</w>
c ap
be tween</w>
t old</w>
st ru
n ess</w>
d y</w>
to o</w>
litt le</w>
mil it
h an
wh ile</w>
b il
thin k</w>
e i
ye ars</w>
f ul
i on</w>
c y</w>
c ol
t al
lo c
he ad</w>
an y
ye ar</w>
l ast</w>
th ought</w>
po in
li on</w>
ec ted</w>
be ing</w>
' '</w>
ak ing</w>
tur e</w>
t ake</w>
mu ch</w>
ain st</w>
ag ainst</w>
p h
ser v
ag ain</w>
w er</w>
c u
su p
sa y</w>
m ust</w>
is h</w>
m en</w>
ic al</w>
h u
c r
o wn</w>
man y</w>
g l
f ace</w>
re ad
st an
en d
t or</w>
v o
gen er
f ri
f ol
d r
cl u
b er
un der
as h
re l
an s
ti ve</w>
j i
ti m
th ough</w>
an ge</w>
or y</w>
om e</w>
y r
st o
d e</w>
me di
k no
dev el
le t</w>
i ties</w>
pre sid
k h
ri ght</w>
ha pp
b as
u e</w>
i an</w>
s ol
por t
so ci
in d</w>
ch ar
ur ity</w>
e p</w>
b re
repor ted</w>
w ays</w>
em p
e ar
af gh
w ant</w>
sti ll</w>
h er
of f</w>
m p
c ed</w>
th er
or g
be g
sec urity</w>
f am
on d</w>
a k</w>
b or
an other</w>
ur ing</w>
ro om</w>
c le
s on</w>
it ed</w>
with out</w>
st an</w>
p le
l ar
stru c
sp e
si g
c ame</w>
ou l
en ed</w>
w ard</w>
n or
hi m
w al
pol ice</w>
coun try</w>
e yes</w>
un der</w>
f er
t ter</w>
s en
po si
on om
st s</w>
p a
mi ght</w>
m r</w>
h and</w>
d ar
devel op
b le
ti v
cen tr
w ent</w>
re g
off ici
him self</w>
h ou
ever y
a way</w>
v al
ta ji
sa me</w>
pu t</w>
pl ace</w>
li fe</w>
c a
s m
b us
at h</w>
a ff
ever y</w>
an n
su b
s ure</w>
org an
d el
wh y</w>
o l</w>
c ess</w>
l ess</w>
su l
m ed</w>
tic al</w>
gr ou
f el
ec onom
d uring</w>
bo dy</w>
v e
re sp
fo re
diff er
w r
presid ent</w>
le ad
ex t</w>
e ach</w>
st re
ou t
k yr
ent ly</w>
st ud
si ble</w>
p ti
kyr gy
pro duc
ni ght</w>
g er</w>
t ec
par t</w>
p ed</w>
f un
d ic
ac cor
por t</w>
el ec
po li
l es</w>
k et</w>
b i
ar t</w>
u m</w>
some thing</w>
en ing</w>
di rec
w ar</w>
g ro
ar ound</w>
loo k</w>
l ine</w>
r ed</w>
pak istan</w>
or t</w>
ig n</w>
st ri
hou se</w>
b ar
as s</w>
am er
ak h
w in
s cho
p i
au th
minist er</w>
go t</w>
gh ts</w>
t ain
s ing</w>
gre at</w>
g y</w>
ch ed</w>
t ers</w>
st ate</w>
on ce</w>
se t</w>
n um
we e
m ents</w>
k istan</w>
no thing</w>
st er
read y</w>
c ro
se em
loo ked</w>
egy pti
a ve</w>
hi gh</w>
n at
le ft</w>
in cre
har ry</w>
h al
d en
tur ned</w>
f ic
ap pe
si st
re li
is l
ec ts</w>
e f
al ways</w>
v en</w>
n ec
l in
em ber</w>
w ing</w>
s il
po wer</w>
h op
b an</w>
ter r
shi p</w>
p al
e ff
t ell</w>
s k
li c</w>
is ed</w>
an t
amer ic
s ince</w>
k az
b ur
b ed</w>
1 9
le v
t ro
s po
g g
egypti an</w>
in ess</w>
bu il
ad ded</w>
t en</w>
t el
t ain</w>
ic es</w>
accor ding</w>
to ok</w>
y oun
t ak
li ght</w>
kil led</w>
t ting</w>
s it
re qu
inter national</w>
ch ange</w>
ab il
u z
en g
wat er</w>
ish ed</w>
ap pro
' re</w>
ne ed</w>
m en
h un
fe w</w>
vi e
c k</w>
as ked</w>
ar i
in form
ho w
al l
sa ys</w>
re s
ou th</w>
chil dre
b ri
wom en</w>
tri es</w>
childre n</w>
a ir
th ings</w>
it ing</w>
gi ve</w>
e u
con sid
up on</w>
th s</w>
hel p</w>
tim es</w>
ti c</w>
th ers</w>
pu b
h or
de p
v en
p er</w>
medi a</w>
un i
sa w</w>
re gi
pub lic</w>
pos sible</w>
t able</w>
l at
gener al</w>
d ra
cal led</w>
auth or
f our</w>
coun tries</w>
ag re
st or
se ar
p ing</w>
o v</w>
n ext</w>
n er</w>
mil lion</w>
j ect</w>
c an
ac c
le g
is m</w>
fol low
ati ve</w>
1 0</w>
il l
h ol
d ly</w>
' ll</w>
f ur
f ound</w>
e y</w>
bo th</w>
a w
per i
la w</w>
d ays</w>
cont in
a b</w>
sec ond</w>
ist s</w>
a h</w>
p le</w>
c as
how ever</w>
w an
s es</w>
r us
me e
resp on
man ag
uz be
r is
h ome</w>
fin d</w>
f ar</w>
tr ac
t ali
is su
en cy</w>
di dn</w>
to ge
toge ther</w>
st ed</w>
ne ws</w>
im port
fa ther</w>
centr al</w>
ag es</w>
oul dn</w>
ic t</w>
t un
re ally</w>
m om
lo ve</w>
in clu
ic ul
fel t</w>
d ro
num ber</w>
youn g</w>
tur n</w>
ste m</w>
st op
pro ble
p e</w>
is ra
egy pt</w>
d ers</w>
z e</w>
tali ban</w>
spec i
si ve</w>
par ty</w>
differ ent</w>
at e
ad i
y et</w>
pro f
in di
d in
b ers</w>
oper ation</w>
n s</w>
do or</w>
u al</w>
seem ed</w>
qu es
posi tion</w>
m m
kaz akh
for m</w>
develop ment</w>
comm it
terr or
ter ed</w>
sy stem</w>
s ci
i de
g ed</w>
ful ly</w>
comp any</w>
at a</w>
un ti
u t
su c
c us
0 00</w>
s us
s mil
p ur
op en</w>
ol e</w>
id ed</w>
f ree</w>
comp le
be tter</w>
t or
st and</w>
he ard</w>
f il
an i</w>
re m
ic k</w>
grou p</w>
fam ily</w>
c ul
se e
la u
j u
tec h
po sed</w>
l on
g ra
g ir
b ab
p ast</w>
isl am
inform ation</w>
d ri
d one</w>
beg an</w>
' m</w>
r s</w>
poli tical</w>
ous ly</w>
m y
l an
fi ve</w>
do es</w>
cur ren
an k</w>
al most</w>
v ol
ne e
o s
ic k
econom ic</w>
vo ice</w>
ex am
en ough</w>
d en</w>
c am
mo ther</w>
z ed</w>
sus p
j e
hal f</w>
any thing</w>
am ong</w>
wh e
unti l</w>
tr ans
sh ar
hel d</w>
fi ed</w>
e as
comm un
ain ed</w>
sh all</w>
o h</w>
n ame</w>
m us
it al</w>
cont ro
c ase</w>
abil ity</w>
re as
offici als</w>
mom ent</w>
le y</w>
inv est
bel ie
a h
su d
o thers</w>
in c
e qu
de f
al ity</w>
ac k
' ve</w>
ti on
oun ds</w>
o ver
milit ants</w>
is ion</w>
er ing</w>
s w
s al
ch ang
at ten
ad v
se en</w>
ro ad</w>
per s
li m
f lo
bus iness</w>
as k</w>
, 000</w>
st er</w>
re sul
he art</w>
as ia</w>
wom an</w>
scho ol</w>
organ iz
l ad
fore ign</w>
for ces</w>
sec re
p as
min d</w>
ban k</w>
b en
t ors</w>
sup port</w>
sti tu
milit ary</w>
el s</w>
y a</w>
hi gh
en s</w>
cour se</w>
b a
wor ds</w>
wor d</w>
with in</w>
v ir
or der</w>
l and</w>
ex pres
at s</w>
ar ly</w>
an istan</w>
al ready</w>
afgh anistan</w>
war ds</w>
th re
taji kistan</w>
s or
ro w</w>
m id
k new</w>
do c
ci al</w>
c ent</w>
be h
wh ole</w>
tak en</w>
s qu
pres ent</w>
pl an
m ur
h ard</w>
eu ro
chil d</w>
' d</w>
v ic
u res</w>
ti ci
so on</w>
pr is
j un
hu man</w>
gi ven</w>
ac t</w>
w on</w>
us ing</w>
sm all</w>
sear ch</w>
pl ay
mon ey</w>
le ar
in du
fe el</w>
dis cus
di str
c ess
pl ic
lar ge</w>
fr on
el l
cle ar</w>
bo o
le ast</w>
han ds</w>
fi el
every thing</w>
comp an
ch ing</w>
are n
a ir</w>
wan ted</w>
w ed</w>
vie w</w>
th ir
serv ice</w>
rus si
our s</w>
m rs</w>
import ant</w>
belie ve</w>
sel ves</w>
ke ep</w>
il i
ful l</w>
americ an</w>
afgh an</w>
mo v
kyrgy z</w>
ha ps</w>
col l
al y
1 1</w>
te e</w>
per haps</w>
mee ting</w>
inclu ding</w>
in ed</w>
f ar
b al
t ar
sto od</w>
n a
m ent
i ous</w>
em ents</w>
beh ind</w>
ac ti
2 0</w>
w il
ro ss</w>
ri ed</w>
re co
poin t</w>
kno wn</w>
g ri
es ti
d ge</w>
s ever
qu ite</w>
ma j
k ar
in a</w>
he ad
ha ving</w>
d ou
c la
bil lion</w>
w o
st at
repor t</w>
re st</w>
po se</w>
no v
n am
minist ry</w>
h us
ar ed</w>
ti onal</w>
sa ying</w>
m al
ef for
d am
b om
are a</w>
ul ar</w>
st u
s le
rec ei
pri v
j an
in i
i gh
e duc
b est</w>
y ed</w>
su ff
reli gi
pro cess</w>
mar ket</w>
m ul
contin u
b s</w>
ach ed</w>
pp ed</w>
pl ac
mon ths</w>
ar ab</w>
ac ross</w>
wee k</w>
s our
mem ber</w>
mar ch</w>
m aking</w>
he al
5 0</w>
ti s
par t
ol l
n al</w>
m er
ir e</w>
bas ed</w>
b lo
ud e</w>
stan ding</w>
re p
pol ic
m a</w>
lau gh
kazakh stan</w>
hop e</w>
d a
t aking</w>
si ons</w>
s li
loc al</w>
ir a
h y
fe el
de ath</w>
d ata</w>
ab l
1 2</w>
tr an
tal k</w>
soci al</w>
s c
re ad</w>
off ice</w>
g s</w>
en ds</w>
ain ing</w>
ac ks</w>
stud y</w>
sever al</w>
pr in
per son</w>
pe ace</w>
loo king</w>
l u
do ing</w>
di st
d le</w>
as ed</w>
ab o
th o
t al</w>
sit u
pal est
in s</w>
i ght</w>
g es</w>
ex tre
el se</w>
do w</w>
bec ome</w>
ap er</w>
w on
vi ol
uni ver
t y
i m</w>
f re
b ra
st om
p at
lo t</w>
la h</w>
kyrgy z
clo se</w>
tur k
the m
t on</w>
st ro
ra ther</w>
my self</w>
me as
lo st</w>
kyrgyz stan</w>
her self</w>
for ce</w>
fo o
fir e</w>
con f
commit tee</w>
ch es</w>
c ity</w>
at ely</w>
are as</w>
an c
wh ite</w>
v ari
to day</w>
t on
ne ar</w>
il s</w>
der ed</w>
dar k</w>
ch ie
bil ity</w>
author ities</w>
ur al</w>
u tion</w>
s ent</w>
p t
p op
ke y</w>
in st
gr am
g ave</w>
ch e
al one</w>
ver ed</w>
tr ade</w>
th ous
s ing
s at</w>
por ts</w>
mor ning</w>
li st
li ed</w>
ir ed</w>
follow ing</w>
est abl
com ing</w>
ag ency</w>
whe ther</w>
pak ist
p es
on es</w>
lat er</w>
di es</w>
bor der</w>
a th
tic s</w>
si x</w>
s un
p ic
ol s</w>
k ind</w>
j ects</w>
in ten
i or</w>
h ur
g one</w>
g er
form er</w>
distr ict</w>
b es
ac tion</w>
tr u
p ul
m it
j ur
gr ound</w>
en ces</w>
bl ack</w>
b al</w>
ar ds</w>
str ate
star ted</w>
st ing</w>
ri ghts</w>
pu bl
p aren
mem bers</w>
id enti
ag o</w>
1 5</w>
y e</w>
tri bu
t om
r ound</w>
p ho
m ay
j our
h on
fur ther</w>
fac t</w>
ex pl
cer tain</w>
att ack</w>
w as
under stand</w>
taji k</w>
m ak
isra el
in d
in cl
g ing</w>
g ar
dep end
con cer
com pe
u ally</w>
t ary</w>
sto p</w>
s ou
ru n</w>
re pres
r ing</w>
pes ha
ne t
mo ve</w>
m ag
i al</w>
re al</w>
pesha war</w>
nec ess
mat ter</w>
il ed</w>
fiel d</w>
ex ce
di tion</w>
ch ri
bi g</w>
ati c</w>
ac tiv
tri ed</w>
to wn</w>
tici p
st ra
pro ject</w>
p ec
of ten</w>
ic s</w>
fi g
coun t</w>
al ong</w>
al i</w>
vis it</w>
tr ying</w>
tr av
them selves</w>
t ou
sho w</w>
r un
r ate</w>
or e</w>
me ans</w>
m ad
lo gy</w>
ex c
chie f</w>
an aly
ter min
struc tion</w>
st ates</w>
regi on</w>
par tic
on line</w>
offici al</w>
n u
n or</w>
li ve</w>
k o
g ation</w>
fo od</w>
exp lo
diff icul
de ad</w>
cu stom
sud den
su pp
re f
pro gram
ne w
n a</w>
le ave</w>
israel i</w>
he av
ha ir</w>
go d</w>
g as</w>
d r</w>
d oll
c o</w>
c are</w>
sudden ly</w>
s ity</w>
r an
ou d</w>
o w
mis s</w>
l or
k en</w>
jun e</w>
i ds</w>
fu ture</w>
compan ies</w>
ann oun
si mp
in e
heal th</w>
fron t</w>
air s</w>
abo ve</w>
3 0</w>
wor k
situ ation</w>
s sed</w>
s ch
ri l</w>
r adi
prov id
poin ted</w>
pakist ani</w>
op s</w>
on ed</w>
lo g
inter est
d om
cour t</w>
ch ec
bo ok</w>
ar ing</w>
ap ril</w>
wh om</w>
un ited</w>
u n</w>
ti al</w>
si r</w>
ro r</w>
inter est</w>
ev ening</w>
ec tion</w>
do m</w>
d ru
c ir
to p</w>
tech no
me an</w>
j ud
inv ol
ing ly</w>
exp ected</w>
dec ision</w>
bu l
bo y</w>
u l</w>
s outh</w>
re search</w>
p tion</w>
out side</w>
nor th</w>
lev el</w>
in t</w>
happ y</w>
g lo
des cri
buil ding</w>
b all</w>
ad minist
st ory</w>
r an</w>
proble m</w>
n er
me an
m ir
incre ase</w>
im pro
he ar</w>
fer ence</w>
emp lo
z a
ye v</w>
wor king</w>
to wards</w>
star t</w>
pt ember</w>
pl ay</w>
par ed</w>
oun ded</w>
m es
l ate</w>
j am
gr ap
fri end</w>
fl u
du e</w>
d ang
b ly</w>
1 4</w>
1 3</w>
v id
ul ation</w>
sh ort</w>
sen se</w>
se ptember</w>
pres s</w>
gir l</w>
ei ther</w>
de l</w>
curren t</w>
c all</w>
wi fe</w>
t t</w>
soci e
r ul
r on</w>
ques tion</w>
p en
o d
ne l</w>
mov ement</w>
mid dle</w>
le a
islam ic</w>
in dic
fe et</w>
em er
contro l</w>
c n
br ought</w>
ac y</w>
19 9
uzbe kistan</w>
th ro
r ic
pl an</w>
me et</w>
me d
m oun
li ving</w>
feel ing</w>
e f</w>
con ver
b ru
ad dre
ab ad</w>
th y</w>
sy ri
religi ous</w>
re ached</w>
priv ate</w>
po or</w>
p ati
p an
off ic
ide a</w>
i ed</w>
h old</w>
em s</w>
elec tr
b b
w el
stud ents</w>
some times</w>
s n
pro t
par ticip
li am
inv esti
im ed</w>
happ ened</w>
ex peri
en ty</w>
d ate</w>
as h</w>
ar r
wh ose</w>
us h
tal king</w>
t ty</w>
o v
may be</w>
ke ts</w>
is i
in ian</w>
fri ends</w>
es day</w>
ear ly</w>
c at
ati onal</w>
ar my</w>
ac hi
te am</w>
t an
spe ak</w>
prov ide</w>
pri me</w>
par liam
n ers</w>
h our</w>
ge tting</w>
g ni
enti al</w>
c are
v ely</w>
to ward</w>
sh u
serv ices</w>
re ly</w>
organ is
ni fic
f ing
er y</w>
dr ed</w>
dou b
di ed</w>
com man
c ra
b ad</w>
ar ms</w>
wor ks</w>
win dow</w>
su gg
rel ati
re turn</w>
palest inian</w>
nat ural</w>
maj or</w>
l ab
k es
jan u
it er
in side</w>
in de
h and
exam ple</w>
educ ation</w>
c k
agre ement</w>
w er
secre tary</w>
se tt
proble ms</w>
p ra
m ing</w>
la un
janu ary</w>
in ation</w>
id ence</w>
i e</w>
i ally</w>
gu e</w>
grou ps</w>
g est</w>
fi gh
f ell</w>
ex per
en er
con ce
c ouldn</w>
c el
bl ast</w>
at ors</w>
ar re
af ter
2 5</w>
thin king</w>
t es</w>
reas on</w>
re sid
prov ince</w>
or din
lead ers</w>
ish ing</w>
in depend
h ours</w>
fin an
f y</w>
be au
ag r
a il
w ouldn</w>
str ong</w>
socie ty</w>
s we
o il</w>
nee ds</w>
necess ary</w>
mo ved</w>
mes sa
invest ment</w>
fun c
en vir
cri min
com b
an ds</w>
u te</w>
pr ince</w>
manag ement</w>
im ag
es pec
envir on
de al</w>
chri stop
cer tain
c ar</w>
blo od</w>
b it</w>
ain s</w>
u es</w>
ster n</w>
st one</w>
st ay</w>
sh oul
resul ts</w>
pas sed</w>
p un
ou gh
mon th</w>
li k
le ban
it self</w>
h en
fe ar</w>
f f</w>
ex change</w>
every one</w>
espec ially</w>
de termin
con duc
ci l</w>
christop he</w>
cha ir
c op
bro ther</w>
au ght</w>
administ r
st and
spo kes
sp ir
reg ar
pro mis
port un
op portun
indi vid
d a</w>
co vered</w>
co st</w>
wal ked</w>
w ide</w>
tur al</w>
sig nific
si bility</w>
sa d
s car
res our
pre v
pi ec
p ay</w>
p ass
or i
ne igh
me t</w>
mat er
li g
kno w
in tel
in es</w>
h om
dec ided</w>
chang ed</w>
cap ital</w>
at ure</w>
an im
wa it</w>
tr ou
to tal</w>
t ation</w>
st ry</w>
se qu
s ort</w>
reco gni
ple as
p ounds</w>
ke e
it ch</w>
hun dred</w>
g n
g az
follow ed</w>
fig ure</w>
de ar</w>
c old</w>
al low</w>
1 00</w>
vi ties</w>
to ber</w>
ti ce</w>
terror ism</w>
sy st
sec tor</w>
recei ved</w>
rec ently</w>
qu ick
qu ar
per cent</w>
oc tober</w>
oc r
ob ser
nee ded</w>
mus li
lor d</w>
indu stry</w>
in ning</w>
in k</w>
im ple
ho sp
ha mm
for ward</w>
finan cial</w>
f al
ener gy</w>
en ding</w>
du ce</w>
dec ember</w>
bec ame</w>
b ir
b ill</w>
ac ked</w>
ac ce
y ber</w>
thous and</w>
thir d</w>
ste ad</w>
scho ols</w>
rec ent</w>
oper ations</w>
op ened</w>
li es</w>
know le
ju ly</w>
gre at
fi ght</w>
f le
ex ports</w>
ev ed</w>
en ded</w>
ec tive</w>
eas y</w>
e m</w>
do es
cr is
com for
cn n</w>
char ac
au g
al though</w>
v ill
tr aining</w>
ther e
stre et</w>
s co
ro le</w>
p aper</w>
ne y</w>
li ber
le ad</w>
jo b</w>
ha r</w>
gro w
g a
eff ect</w>
dem ocr
de part
d ul
com es</w>
as soci
ans w
am s</w>
y s
w ish</w>
sur pr
suc cess
se a</w>
s low
russi an</w>
radi o</w>
pro ce
nat ure</w>
n al
m ic
li e</w>
id ent</w>
ho od</w>
fi f
fi c</w>
en gl
e th
di e</w>
dem on
de pu
de b
ant i</w>
ans wer</w>
agre ed</w>
wr ong</w>
was n</w>
val ue</w>
tran sp
t a</w>
su per
stat ement</w>
smil e</w>
sit ting</w>
sh e
se par
rel ations</w>
re le
peri od</w>
o t</w>
lon ger</w>
l a</w>
kh yber</w>
ke pt</w>
g ent
g ate</w>
fe der
f ine</w>
es sion</w>
effor ts</w>
e v</w>
d au
coun cil</w>
con nec
c li
bo ard</w>
bab ly</w>
b and</w>
att acks</w>
any one</w>
ag ed</w>
w est</w>
univer sity</w>
tu al</w>
tr ue</w>
t em
stop ped</w>
s ound</w>
s cre
ne t</w>
m es</w>
isra el</w>
ira q</w>
ir an</w>
incre as
in stead</w>
ha m
h it</w>
en ted</w>
el led</w>
con v
con sci
ci es</w>
cam pa
ar ri
4 0</w>
vari ous</w>
uzbe k</w>
tr a
t in
s s
run ning</w>
re pe
produc ts</w>
pro bably</w>
net work</w>
n on</w>
mo der
ment al</w>
l er</w>
l ay</w>
knowle dge</w>
kh an</w>
issu e</w>
il ing</w>
f ren
es sed</w>
e ast</w>
d on
bel i
b led</w>
b it
av o
ach i</w>
. s</w>
y er</w>
tur ning</w>
tiv ely</w>
s is</w>
pro per
par ties</w>
on y</w>
n y</w>
leg al</w>
lead er</w>
kar achi</w>
k u
im medi
ex ten
econom y</w>
ear th</w>
cri ed</w>
consid ered</w>
c us</w>
at or</w>
ar m</w>
an ced</w>
acti vities</w>
. 5</w>
w all</w>
ut es</w>
turk men
tain ed</w>
spokes man</w>
s even</w>
pro jects</w>
prin ci
pre vi
pl es</w>
ph one</w>
mo del</w>
jour nal
in jur
in f
fac il
fa v
euro pe
ei ght</w>
e ve</w>
e ful</w>
does n</w>
cro w
ch ina</w>
appe ared</w>
ac qu
we d
wa iting</w>
tu res</w>
th us</w>
ter ing</w>
ste p</w>
speci al</w>
ris k</w>
o p</w>
j a
in stitu
im p
h ous
gi ving</w>
e ts</w>
e k</w>
du m
del i
dau gh
con stitu
cha ir</w>
c ou
al e</w>
1 8</w>
ter m</w>
su mm
st ren
stren g
sing le</w>
sh or
s em
re turned</w>
re spec
re ali
ra id</w>
qu ality</w>
pro cess
poin ts</w>
po ten
p ain
o ds</w>
n ation</w>
me ant</w>
mar y</w>
it or</w>
inde ed</w>
incl ude</w>
europe an</w>
de ta
con di
commun ity</w>
clo sed</w>
c le</w>
viol ence</w>
ul t</w>
ul arly</w>
tu ally</w>
syst ems</w>
su ic
struc ture</w>
ste ps</w>
some one</w>
so f
ra ised</w>
quick ly</w>
or ity</w>
min utes</w>
m un
m ain</w>
m ain
lan gu
issu es</w>
gir ls</w>
gh tly</w>
g am
flo or</w>
fe bru
febru ary</w>
ec ting</w>
de stro
d us
compe ti
c ement</w>
br ing</w>
beg inning</w>
ap p
agr icul
ab ly</w>
a id</w>
200 1</w>
y our
x ed</w>
wal k</w>
tw enty</w>
te en</w>
t our
s mo
russi a</w>
re duc
pro tec
ple ase</w>
plac ed</w>
pl ans</w>
lo ws</w>
la w
l led</w>
ish ment</w>
es cap
direc tor</w>
con tribu
con struction</w>
con ference</w>
commun ic
certain ly</w>
centr e</w>
can di
bl ing</w>
be ha
b ak
author ity</w>
ar ti
an ti
2 2</w>
v il
tro ops</w>
to m</w>
suic ide</w>
strate gi
str on
sp ace</w>
sol di
sk y</w>
sig ned</w>
ro se</w>
repres ent
re fl
produc tion</w>
pres sure</w>
posi tive</w>
polic y</w>
pers on
or ies</w>
o k
no on</w>
ma ster</w>
l ist</w>
k p</w>
j us
is ing</w>
in flu
il ies</w>
grow th</w>
for tun
fic ation</w>
fam ilies</w>
f all</w>
exce pt</w>
doll ars</w>
doc tor</w>
des p
depart ment</w>
car ried</w>
c ent
arre sted</w>
announ ced</w>
an ces</w>
am p</w>
ad op
za i</w>
wh is
ti ll</w>
there fore</w>
ter ms</w>
slow ly</w>
sa tion</w>
s ite</w>
re member</w>
r ise</w>
ph ys
o s</w>
lad y</w>
la m</w>
gh t
g old</w>
form ed</w>
f ast</w>
euro pe</w>
effor t</w>
com pu
ch ur
bo dies</w>
ben ef
aug ust</w>
atten tion</w>
as sist
al low
y ou
v ers</w>
v an
tt p</w>
tre es</w>
tic ally</w>
ther n</w>
terror ist</w>
techno logy</w>
st ation</w>
spo ke</w>
sour ces</w>
sour ce</w>
s an
r ou
qu i
program me</w>
pp ing</w>
po st</w>
paren ts</w>
op position</w>
nov ember</w>
messa ge</w>
lo ved</w>
k a</w>
ini ti
indu stri
in ing</w>
hol ding</w>
fre e
ex ist
elec tion</w>
do w
de ep</w>
bre ak</w>
ac count</w>
1 6</w>
y outh</w>
tre at
te h
si mil
si c</w>
sho ws</w>
ri age</w>
rem ain</w>
qu o
qu e</w>
pr ac
mo ving</w>
je an</w>
inter ior</w>
in tro
g en</w>
fren ch</w>
for man
er ous</w>
dus han
depu ty</w>
cas es</w>
c ause</w>
boo ks</w>
ban ks</w>
b ay
ar ab
ap ped</w>
af raid</w>
200 9</w>
tur ed</w>
t ory</w>
st ers</w>
st e</w>
spe aking</w>
si ze</w>
re sol
pr ice</w>
mak es</w>
le tter</w>
iz ed</w>
ic ally</w>
g al
for ced</w>
foo t
equ i
e ye</w>
dushan be</w>
dre w</w>
demon str
comm on</w>
comm er
com pl
co operation</w>
clo ck</w>
chair man</w>
ch all
ash k
as su
ar ch
ap plic
2 8</w>
1 7</w>
wh at
what ever</w>
un ion</w>
te ars</w>
sa ve</w>
s ar
s a</w>
resour ces</w>
rel ated</w>
r as
pr acti
par ts</w>
o blast</w>
n ur
mi one</w>
mar k</w>
l y
intel lig
in te
in sur
her mione</w>
gu n</w>
gra m</w>
gr ad
fin ally</w>
ex ec
en jo
e t
de fin
condi tions</w>
bo ys</w>
av ail
an ian</w>
am oun
am e
vol u
vic ti
turkmen istan</w>
tt on</w>
tr adi
ti z
th an
te ach
t emp
sub ject</w>
sor ry</w>
smil ed</w>
si ght</w>
ser ious</w>
s in
s cor
re ach</w>
ques tions</w>
q i</w>
q a
publ ic
pop ulation</w>
per f
neigh b
mon day</w>
mit ted</w>
m ach
log ical</w>
li er</w>
kil ls</w>
hus band</w>
f oun
extre mis
em y</w>
e th</w>
e p
difficul t</w>
des er
cris is</w>
con su
con fir
c y
buil d</w>
bu d
bra in</w>
beha vi
b on
b loc
arr ang
an a</w>
americ a</w>
aff airs</w>
2 1</w>
ye ster
yester day</w>
v el
tri bal</w>
th ou
suc cess</w>
str ange</w>
sil ence</w>
sig n</w>
sho wed</w>
resul t</w>
r a</w>
poten tial</w>
per forman
par is</w>
new sp
it h</w>
id es</w>
happ en</w>
figh ting</w>
est ed</w>
do ws</w>
del e
daugh ter</w>
cre d
cre ate</w>
continu ed</w>
cla imed</w>
b ing</w>
appro ach</w>
am a</w>
al o
al ex
al ed</w>
ad dition</w>
ad ding</w>
ab ul</w>
x im
tr ust</w>
sho t</w>
s sing</w>
rep lied</w>
reg ist
r ap
pur pose</w>
pro te
pro mo
partic ularly</w>
p es</w>
os h</w>
organiz ations</w>
med ical</w>
meas ures</w>
m outh</w>
m el
m as
lik ely</w>
jo h
hamm ad</w>
gre en</w>
g un
fing ers</w>
ec h</w>
dru g</w>
des ig
con fl
comple te</w>
co ver</w>
cl ass</w>
administr ation</w>
ac cess</w>
2 4</w>
w ol
w ise</w>
w id
w a</w>
ti n</w>
ter ri
syri a</w>
su n</w>
sle ep</w>
sa tis
prot ect</w>
pers onal</w>
or ig
off er</w>
m ist
m ass</w>
m ad</w>
k ill</w>
k er
it ation</w>
islam abad</w>
high er</w>
gro wing</w>
gr and
fri day</w>
ess or</w>
er able</w>
en ced</w>
ed a</w>
de al
d or
d es</w>
consid er</w>
clo th
ci tiz
chec k</w>
c ru
c lim
c aught</w>
b ar</w>
az i
ass em
answ ered</w>
t ch</w>
susp ected</w>
st ati
simil ar</w>
see ing</w>
sa ud
s h</w>
s cal
respon se</w>
organiz ation</w>
lin es</w>
lead ing</w>
langu age</w>
ke k</w>
itt en</w>
injur ed</w>
heav y</w>
gre w</w>
gl ass</w>
gen cy</w>
fun d</w>
fac es</w>
ev ents</w>
en tered</w>
en cour
en cies</w>
elec tions</w>
eff ici
desp ite</w>
der ing</w>
contin ue</w>
cha m
b un
b ish
ash ed</w>
al u
after noon</w>
6 0</w>
ver age</w>
ush ed</w>
us ually</w>
us es</w>
under standing</w>
u r</w>
thou ghts</w>
sp ent</w>
sho wn</w>
sec tion</w>
s l
s ent
requ i
read ing</w>
prov in
pro posed</w>
prev ent</w>
piec e</w>
pa id</w>
op ening</w>
on ship</w>
ob j
o w</w>
no tic
n ine</w>
n ar
musli m</w>
mul ti
me tho
lo ss</w>
le ag
l o</w>
kil ling</w>
inter nal</w>
intellig ence</w>
inte gr
grap h
ge ts</w>
ge or
g ame</w>
f low
experi ence</w>
ex ac
ev idence</w>
er al</w>
em pt</w>
em o
discus sed</w>
dar k
d ings</w>
con trac
campa ign</w>
c up
bish kek</w>
aw are</w>
activ ity</w>
ac ts</w>
2 3</w>
your self</w>
y ond</w>
work ers</w>
wee ks</w>
vill age</w>
ur ed</w>
tt en</w>
tre m
ti red</w>
ten ed</w>
tak es</w>
sup por
sci enti
s ev
s cen
rec or
r i</w>
r ad
play ed</w>
pho to</w>
performan ce</w>
p ted</w>
om s</w>
n t</w>
mu sic</w>
lev els</w>
j ap
is n</w>
is lam</w>
incre ased</w>
immedi ately</w>
im possible</w>
hosp ital</w>
ho t</w>
har dly</w>
gu ar
glo bal</w>
fol low</w>
fa ir</w>
f em
ex er
environ ment</w>
ent ary</w>
ed ward</w>
doub t</w>
di v
con clu
chang es</w>
c ing</w>
be yond</w>
att le</w>
addre ss</w>
ac tually</w>
ab les</w>
a st
20 00</w>
2 9</w>
wo od</w>
we ap
wat ching</w>
ve h
treat ment</w>
supp ly</w>
sist er</w>
simp ly</w>
sh are</w>
se ts</w>
sa fe</w>
requ ired</w>
qa eda</w>
pro sec
pre tty</w>
ph ili
parliam ent</w>
ne arly</w>
loo ks</w>
lon don</w>
li ps</w>
l ess
k h</w>
jo bs</w>
j ac
intro duc
hi story</w>
gre ss</w>
g ol
ess es</w>
el ess</w>
ear lier</w>
dum ble
dumble d
dumbled ore</w>
discus s</w>
differ ence</w>
da ily</w>
d ance</w>
d ad</w>
cu t</w>
com pared</w>
cloth es</w>
car ry</w>
bl ue</w>
beau ti
appe ar</w>
z ation</w>
wor se</w>
tru th</w>
th ank</w>
t est</w>
st oc
st age</w>
shi ps</w>
sen ior</w>
seem s</w>
saud i</w>
prov ided</w>
prof essor</w>
pris on
per ce
offic er</w>
oc cup
nati on
n ice</w>
mo squ
min e</w>
mar ried</w>
lear ned</w>
k ur
k ha
jo int</w>
invol ved</w>
i ther</w>
h um
for d</w>
es si
eng ine
develop ing</w>
dec lar
connec tion</w>
comm is
char ge</w>
ch ance</w>
bec om
b es</w>
avail able</w>
at ures</w>
at trac
an cy</w>
am ed</w>
af ric
a head</w>
200 8</w>
2 6</w>
wr itten</w>
we stern</w>
vis ion</w>
un t</w>
tu esday</w>
tr aff
thre at
te eth</w>
signific ant</w>
sh ou
secre t</w>
ro ad
resid ents</w>
repor ts</w>
regi onal</w>
re stor
r ates</w>
pre pared</w>
p ass</w>
p ain</w>
nu clear</w>
nor m
n e</w>
min ute</w>
mar kets</w>
m ec
leban on</w>
l ou
k in
k es</w>
k abul</w>
ing ing</w>
individ ual</w>
independ ent</w>
ic ity</w>
gr y</w>
fo cus</w>
fel low</w>
exac tly</w>
emer gency</w>
dist ance</w>
bus in
b ad
b ack
adv ant
2 7</w>
x es</w>
w ind</w>
w ash
ty pe</w>
tr ad
t ings</w>
sup posed</w>
sun day</w>
stri bu
strate gy</w>
sou l</w>
s at
ri d
resp ect</w>
r am
pro gram</w>
pos s
pak h
ne go
nego ti
n ations</w>
li ves</w>
kno ws</w>
k g</w>
hu man
govern or</w>
g ul
g ad
form s</w>
fil led</w>
f our
expres sed</w>
en ter
en se</w>
emplo ye
dow n
direc t</w>
di stribu
descri bed</w>
cro ss</w>
co tton</w>
c up</w>
c ks</w>
beauti ful</w>
b ol
b in</w>
ay ed</w>
as ian</w>
ag encies</w>
ad ed</w>
ac coun
ac ad
200 3</w>
z z
vis h</w>
ti l
thir ty</w>
ta x</w>
st ly</w>
spe ed</w>
spe ech</w>
simp le</w>
sil ent</w>
sho p</w>
s it</w>
ra ise</w>
pris on</w>
pres ence</w>
pr ices</w>
pho to
mu t
m ers</w>
lo gi
k ne
ig nor
h m
gent le
en th</w>
electr icity</w>
e ase</w>
dra wing</w>
do g</w>
devel op</w>
d ates</w>
con n
cl in
cal ling</w>
c ell</w>
be ar</w>
b at
avo id</w>
ati ves</w>
ar t
anc ing</w>
ag ing</w>
ac tions</w>
20 10</w>
y el
wed n
tri c</w>
tis h</w>
t ely</w>
sur vi
strategi c</w>
sil ver</w>
ser ve</w>
ser ies</w>
sa m</w>
respon sibility</w>
re st
r ying</w>
r on
pur su
provid es</w>
presid ential</w>
po ver
pal e</w>
pakh tun
offic ers</w>
oc cas
n it
mec han
me dic
lead er
laun ched</w>
k it
journal ists</w>
j an</w>
ir o</w>
hur t</w>
hous es</w>
gu ard</w>
go es</w>
fr ance</w>
for get</w>
fin al</w>
expres sion</w>
ev a</w>
dr ink</w>
der vish</w>
crow d</w>
crimin al</w>
confl ict</w>
comple tely</w>
col on
cal ls</w>
c ket</w>
buil t</w>
bro ken</w>
bes ide</w>
bab y</w>
b a</w>
as p
ang er</w>
an x
acc used</w>
1 8
z ing</w>
y ers</w>
wedn esday</w>
ti t
t ol
sup pose</w>
st y</w>
st af
si x
shu t</w>
sh ei
se tting</w>
s on
s end</w>
ri ver</w>
re ve
re mem
produc t</w>
po wer
pi er
partic ular</w>
pakhtun kh
pakhtunkh wa</w>
p il
p ac
op in
opin ion</w>
no te</w>
no body</w>
n one</w>
m ac
lo y
list en</w>
la id</w>
l ack</w>
kee ping</w>
k ov</w>
j um
j or
is s</w>
ira qi</w>
in qu
im s</w>
i ously</w>
ha med</w>
free dom</w>
en sure</w>
e e</w>
direc tly</w>
deta ils</w>
dec isi
d y
cor ru
cor por
chur ch</w>
ca iro</w>
bre ath</w>
bor n</w>
ar med</w>
an tly</w>
us h</w>
trou ble</w>
tr ain</w>
tom or
tomor row</w>
sw at</w>
stra ight</w>
stati s
stan ces</w>
shoul der</w>
regar ding</w>
re u
previ ous</w>
practi ce</w>
po w
pl ant</w>
phili p</w>
pa ir</w>
p ay
ne ither</w>
metho ds</w>
mean while</w>
me t
m ali
laugh ed</w>
k y</w>
jus tice</w>
issu ed</w>
investi gation</w>
ing ton</w>
influ ence</w>
increas ing</w>
inclu ded</w>
in nov
impro ve</w>
h at</w>
great er</w>
go tten</w>
gl ad</w>
fin ance</w>
fa ult</w>
f er</w>
extre m
enti re</w>
en ter</w>
dom es
doc um
des ire</w>
cor rec
con dem
cap ac
bud get</w>
bre a
bom b</w>
bl es</w>
b on</w>
ar tic
ap paren
analy sis</w>
an ded</w>
an ci
ab road</w>
a p</w>
19 8
wr iting</w>
wat ched</w>
w ro
veh ic
val ues</w>
tt ers</w>
trav el</w>
ter nal</w>
tel ling</w>
t te</w>
t ask</w>
sur ve
sur face</w>
streng th</w>
st ations</w>
sk in</w>
s wit
res h</w>
re sist
re public</w>
ra il
pover ty</w>
per ed</w>
pe tro
p ath</w>
opportun ity</w>
obser ved</w>
o li
ni c</w>
newsp aper</w>
n on
minist ers</w>
leg s</w>
lear n</w>
laugh ter</w>
lar gest</w>
kazakh stan
k ni
j er
ir anian</w>
interest s</w>
inter net</w>
i als</w>
head s</w>
g il
expl ained</w>
escap e</w>
en ess</w>
eff ective</w>
e ding</w>
e ag
doll ar</w>
determin ed</w>
dem and</w>
custom s</w>
cre ated</w>
con sequ
con dition</w>
charac ter
c um
bel ow</w>
bay ev</w>
ar gu
appro pri
amoun t</w>
all en</w>
ali a</w>
af p</w>
ad di
abil ities</w>
ab us</w>
7 0</w>
20 11</w>
1 9</w>
z a</w>
wro te</w>
wor th</w>
wat ch</w>
w ounded</w>
victi ms</w>
vi l</w>
ven tion</w>
un less</w>
tech n
tal ked</w>
t op
stu dies</w>
stre ets</w>
st airs</w>
soldi ers</w>
shei kh</w>
sci ence</w>
re mar
qu ali
protec tion</w>
pre par
p age</w>
opportun ities</w>
oc cur
moder n</w>
mo v</w>
mem ory</w>
mater ial</w>
mat ch</w>
manag ed</w>
le tt</w>
joh n</w>
iz ation</w>
it or
investi g
identi fied</w>
ide as</w>
i er</w>
hu ge</w>
hor se</w>
ha ven</w>
h il
h es
gri d</w>
gre s
foo t</w>
fin ished</w>
f low</w>
f ish</w>
exp ect</w>
en sive</w>
emp ty</w>
din ner</w>
democr atic</w>
dang er</w>
cri mes</w>
conver sation</w>
cen tur
ca used</w>
c a</w>
ber an
beran abus</w>
b ig
att empt</w>
alex and
ag ree</w>
ag on</w>
a unt</w>
a u</w>
200 2</w>
won der</w>
w in</w>
w ants</w>
under stood</w>
un able</w>
ul lah</w>
tri al</w>
thre ats</w>
thous ands</w>
th es
star ting</w>
see m</w>
sec on
se at</w>
s cri
s ac
rele ase</w>
qu e
prof essi
p ha
p ap
off ered</w>
ob vi
min im
mee tings</w>
m er</w>
li b
l un
k m</w>
jor d
jo in</w>
is tic</w>
indi a</w>
im pres
ici al</w>
h a</w>
g or
fr ank</w>
foot ball</w>
fa ir
f ly</w>
ent re
dra wn</w>
di ver
des ign</w>
dang erous</w>
d ry</w>
d ded</w>
cred it</w>
confir med</w>
concer n</w>
ci vil</w>
ci ties</w>
ch in
ch i
cen ter</w>
cam p</w>
bri tish</w>
bes ides</w>
beli ev
be k</w>
assem bly</w>
appe ar
an o</w>
allow ed</w>
ad a</w>
a verage</w>
200 7</w>
wh er
weap ons</w>
volu me</w>
v a</w>
u als</w>
tur ns</w>
terror ists</w>
teach ers</w>
tar get</w>
tain s</w>
t ched</w>
susp ects</w>
surpr ised</w>
struc k</w>
so ft</w>
shi r
sha h</w>
sh r
sh el
ru le</w>
ris ti
reu ters</w>
rem ained</w>
re vol
r ich</w>
r ange</w>
qu anti
pre hen
plac es</w>
organis ation</w>
ob serv
ne g
mo b
mob ile</w>
ment ation</w>
man ner</w>
m ous</w>
m enti
low er</w>
loc ation</w>
lim ited</w>
li ved</w>
leader ship</w>
la ws</w>
l iter
hy dro
hel ped</w>
he ar
h all</w>
geor ge</w>
gener ation</w>
fri gh
fri end
fr an
fer red</w>
f ying</w>
f ted</w>
f requ
f it</w>
expres s</w>
ev ent</w>
eth nic</w>
es tim
emp ha
dark ness</w>
d i</w>
curren tly</w>
comp on
commis sion</w>
chall eng
br an
bas sad
b ase</w>
associ ation</w>
am ing</w>
am bassad
am az
ad vis
ach ing</w>
ac her</w>
5 00</w>
. 1</w>
wor ked</w>
wil d</w>
vi de
val ley</w>
v acc
us ual</w>
ud es</w>
tran si
traff ic</w>
ti er</w>
ter ror</w>
t ashk
tashk ent</w>
syri an</w>
surpr ise</w>
sugg ested</w>
success ful</w>
staf f</w>
st ability</w>
s ses</w>
rul es</w>
reli ef</w>
re form</w>
re duce</w>
pro per</w>
pre dic
poin ting</w>
pleas ure</w>
pic ture</w>
pers ons</w>
ordin ary</w>
mo del
mil es</w>
mi gr
lea ving</w>
kazakhstan i</w>
k ids</w>
it able</w>
imag ine</w>
id ity</w>
ha z
ha dn</w>
go al</w>
g ly</w>
fu el</w>
fi g</w>
fac tors</w>
fa iled</w>
f resh</w>
ex port</w>
ev ision</w>
ev alu
engl ish</w>
cri me</w>
conduc t</w>
comm and</w>
cle an</w>
cl ass
char ges</w>
cha mp
ch risti
ch an
c ked</w>
bu y</w>
bro ke</w>
bel on
beg in</w>
b ag
att acked</w>
at tribu
as ks</w>
as i
any body</w>
anim als</w>
ak h</w>
agricul tural</w>
ac ted</w>
ab dul
. 3</w>
win ter</w>
we b</w>
we ak
wa ited</w>
vi a</w>
ver ing</w>
ti ves</w>
than ks</w>
tel evision</w>
te l</w>
summ er</w>
stru gg
stan a</w>
spir it</w>
speci fic</w>
sp read</w>
shor t
sch em
sa fe
reg ard</w>
re view</w>
re fu
qu ick</w>
process es</w>
pre ci
play ing</w>
phys ical</w>
pati ent</w>
p sy
p ment</w>
or dered</w>
nam ed</w>
mis sion</w>
milit ant</w>
menti oned</w>
li ance</w>
jo y</w>
imp act</w>
ie ty</w>
ic ket</w>
i ons</w>
hi stor
gi ves</w>
gh ty</w>
g ru
facil ities</w>
f ile</w>
f allen</w>
expl ain</w>
est s</w>
er a</w>
em ma</w>
eas ily</w>
e br
domes tic</w>
di alo
cul ture</w>
cl es</w>
c ab
b loo
ati c
as si
am m
ad es</w>
a stana</w>
a be
whis pered</w>
wash ington</w>
wa ve</w>
v ar
us er</w>
ur s
un g</w>
u fac
tin y</w>
thr ough
techn ical</w>
te dly</w>
te ams</w>
t v</w>
suff ered</w>
su it</w>
stri ke</w>
stoc k</w>
stand ard</w>
stan tly</w>
spo t</w>
spe ak
sp or
sp ite</w>
sou thern</w>
sm all
shoul ders</w>
se ized</w>
se as
scar lett</w>
scal e</w>
sa m
relati onship</w>
ra in</w>
r ati
qu ie
pun j
pres sed</w>
pp er</w>
polic em
pass ing</w>
parliam entary</w>
os ce</w>
orig in
notic ed</w>
man ufac
ma xim
ma il</w>
m it</w>
m c
liber ty</w>
li br
lear ning</w>
l eng
k i
in sul
ic ts</w>
i ve</w>
i us</w>
hun dre
hor e</w>
high ly</w>
hi d
ha y
gr ace</w>
go od
go als</w>
gam es</w>
fir m</w>
fil m</w>
fi xed</w>
fi gu
fem ale</w>
exer c
every body</w>
ent ation</w>
en emy</w>
e a
dor o
do ors</w>
dis covered</w>
dis a
develop ed</w>
da wn</w>
custom er</w>
consci ous</w>
con sul
comman der</w>
com par
co sts</w>
co m</w>
bro ad
bo t
ben e
ban king</w>
b ered</w>
au str
ass ess
artic le</w>
arri ved</w>
ar ies</w>
appro ved</w>
an ing</w>
ak es</w>
ah med</w>
ab du
. 2</w>
z en</w>
win dows</w>
wil ling</w>
vide o</w>
urs day</w>
tour ism</w>
th ursday</w>
t ree</w>
t i</w>
t ext</w>
t ent</w>
suff ici
sp l
smil ing</w>
s er</w>
respon sible</w>
re ality</w>
ra m</w>
ra ising</w>
r ac
provid ing</w>
prosec u
play ers</w>
plan ning</w>
pl om
oun ding</w>
organis ations</w>
oper ating</w>
ob ject</w>
o x
o ts</w>
nec k</w>
mic ro
me th
mar ry</w>
m ou
loc ated</w>
lin k</w>
li ked</w>
li ghts</w>
leban ese</w>
lad en</w>
la hore</w>
l ying</w>
iz e</w>
is on</w>
is es</w>
invest ments</w>
industri al</w>
id ly</w>
hundre ds</w>
hor ses</w>
har d
h ell</w>
gro w</w>
ger man</w>
fir ms</w>
figu res</w>
feder al</w>
fa il
exper ts</w>
ex ternal</w>
equi pment</w>
engl and</w>
en or
el e
e ded</w>
e at</w>
dru gs</w>
dri ve</w>
dra w</w>
direc tion</w>
di plom
def ence</w>
de gre
cul tural</w>
commer cial</w>
co ff
co at</w>
cham ber</w>
c ast</w>
bre ak
are n</w>
ap art</w>
any way</w>
an g</w>
ambassad or</w>
aff ected</w>
ach es</w>
ac tive</w>
ac king</w>
20 0</w>
1 0
y or
yor k</w>
y le</w>
wr ite</w>
us eful</w>
ur s</w>
tw el
tre ated</w>
tradi tional</w>
thro at</w>
tar ge
t ac
sy m
sur ren
star ing</w>
sp ring</w>
some where</w>
some how</w>
sel y</w>
s kills</w>
ro y
ro ber
reas ons</w>
r is</w>
pur cha
pul led</w>
promis ed</w>
poli tics</w>
per su
p el
op pos
ol der</w>
ok ay</w>
ob tained</w>
norm al</w>
no ise</w>
mil li
mean ing</w>
mag ic</w>
m am
list ening</w>
li qu
leag ue</w>
lau gh</w>
it al
is ation</w>
inten ded</w>
insur g
inst ance</w>
individ uals</w>
im prov
im ages</w>
i v
i um</w>
happ iness</w>
h i</w>
g ates</w>
fiel ds</w>
feel ings</w>
f i</w>
f as
ex hi
en tr
elec tric</w>
dou ble</w>
dis pu
difficul ty</w>
di r
destro yed</w>
dele gation</w>
con sist
ci vil
cho ice</w>
ch em
bri dge</w>
beli eved</w>
bas is</w>
b its</w>
at ory</w>
as king</w>
appropri ate</w>
an gry</w>
addi tional</w>
a ther</w>
200 4</w>
. 6</w>
z es</w>
wol f</w>
w azi
wazi ri
waziri stan</w>
th u
th in</w>
terri ble</w>
sp here</w>
sid es</w>
sha dow</w>
sh ed</w>
s y</w>
s la
s ind
s en</w>
s cr
refu ge
re ven
re ser
re j
qui et</w>
publ ished</w>
pu tting</w>
proper ty</w>
pro ve</w>
pro to
pro pos
pier re</w>
person nel</w>
perf ect</w>
p a</w>
or ders</w>
ob ama</w>
o b</w>
ner ship</w>
n es</w>
mis sing</w>
mater ials</w>
mar g
mach ine</w>
m ly</w>
le ge</w>
laugh ing</w>
l oud</w>
l ic
l and
k er</w>
jap an</w>
it es</w>
isl and</w>
invest ors</w>
interest ed</w>
ing u
in come</w>
h ill</w>
guar an
gar den</w>
fl ying</w>
f la
establ ished</w>
establ ish</w>
el ed</w>
du ty</w>
direc ted</w>
dialo gue</w>
desig ned</w>
de st
de fe
d ur
coun ter</w>
contro lled</w>
cont ent</w>
comfor t</w>
clu b</w>
cir cum
chin ese</w>
challeng es</w>
centur y</w>
car riage</w>
c ry</w>
bo x</w>
bo tt
bi tion</w>
benef it</w>
bene ath</w>
b attle</w>
au di
att ers</w>
att emp
appear ance</w>
anci ent</w>
al led</w>
advant age</w>
acqu ain
achi eve</w>
a imed</w>
200 6</w>
. 8</w>
. 7</w>
z one</w>
z ar
won der
wit n
war m</w>
w ine</w>
vie ws</w>
v al</w>
v ac
un known</w>
u tions</w>
tre as
transp ort</w>
through out</w>
thre at</w>
terr it
tech ni
tal ks</w>
t ations</w>
sy mp
ste ad
sol ution</w>
sho ok</w>
sett led</w>
sec ure</w>
sch ed
sched ul
safe ty</w>
sa d</w>
ru d
ri es</w>
rep ly</w>
religi on</w>
regi me</w>
recei ve</w>
r l</w>
provin cial</w>
professi onal</w>
prison ers</w>
pow ers</w>
pop ular</w>
ple ased</w>
pat ter
p av
num bers</w>
no tice</w>
no ted</w>
mu hammad</w>
meth od</w>
mar ke
lo ad</w>
list ened</w>
libr ary</w>
li gh
lar ger</w>
lad ies</w>
kaz akh</w>
k ol
k is
k in</w>
k ho
jud ge</w>
it ated</w>
inter ru
indi an</w>
imple mentation</w>
ill u
ho ly</w>
hid den</w>
ha m</w>
go ods</w>
f ts</w>
f led</w>
f at
ex ist</w>
entr ance</w>
em bar
eff ects</w>
e ye
dro p</w>
dev o
d av
cri tical</w>
cor ner</w>
concer ned</w>
con vic
com plic
co ordin
citiz ens</w>
cha p
care fully</w>
capac ity</w>
cap tain</w>
bus h</w>
bro wn</w>
be at</w>
bas ic</w>
ba gh
au l</w>
ar rest</w>
ap e</w>
ann ual</w>
anim al</w>
and a</w>
an ed</w>
afric an</w>
acce pted</w>
ac ting</w>
ab sol
a ids</w>
200 5</w>
we al
wal king</w>
twel ve</w>
turk men</w>
tur key</w>
tur ing</w>
trac y</w>
tou ched</w>
tou ch</w>
th om
te sts</w>
te enth</w>
te ach</w>
te a</w>
tain ing</w>
t ren
sud den</w>
stre ssed</w>
star ed</w>
sp end</w>
sm ell</w>
sind h</w>
separ ate</w>
scen e</w>
s tic
s ounds</w>
s low</w>
ro l
ris ing</w>
requ est</w>
reas on
r out
punj ab</w>
pro duce</w>
pri ority</w>
pre ne
power ful</w>
pos sibility</w>
po st
pe ac
p tions</w>
p hi
oper ate</w>
negoti ations</w>
nam es</w>
n ings</w>
n as
mosqu e</w>
mon itor
mo re
mat es</w>
marke ting</w>
mar riage</w>
mali k</w>
m on</w>
m as</w>
loc k</w>
ko re
k ly</w>
k ad
jo ined</w>
jac ob</w>
inter view</w>
in struc
in spec
in no
in fl
in ated</w>
import ance</w>
im age</w>
ili ans</w>
hop es</w>
ho li
high est</w>
h in
h ate</w>
gg ed</w>
gener ally</w>
g li
g ar</w>
g ab
func tion</w>
frigh tened</w>
four th</w>
fail ure</w>
extremis m</w>
employe es</w>
e u</w>
e ds</w>
dre ssed</w>
dre am</w>
decisi ons</w>
deb t</w>
de a
d an
cra w
cr icket</w>
cont ext</w>
compon ents</w>
col lege</w>
cle arly</w>
cal m</w>
c king</w>
c at</w>
c ars</w>
bu t
bro ad</w>
bo at</w>
becom ing</w>
b o</w>
b i</w>
atten d</w>
an ese</w>
americ ans</w>
ali ve</w>
al together</w>
al ter
al leg
al ist</w>
adop ted</w>
achi eved</w>
achi ev
acad em
a z</w>
a i</w>
youn ger</w>
y ard</w>
y an</w>
won dered</w>
wher e
we ak</w>
wal ls</w>
w ished</w>
v ul
v ilians</w>
tt a</w>
trem bling</w>
th ly</w>
t ted</w>
t all</w>
sof tw
so vi
so li
small er</w>
sli ghtly</w>
sle e
sho o
sh er
scienti fic</w>
s now</w>
ro ck</w>
remem bered</w>
rem ains</w>
relati ves</w>
rec ru
re pu
re ments</w>
r fe</w>
quie tly</w>
quar ters</w>
pro p
princi ples</w>
prac tic
poli o</w>
p ushed</w>
p ack
or g</w>
om e
occur red</w>
nati ve</w>
n az
mur mur
meas ure</w>
me h
mal fo
mad ame</w>
ma p</w>
lo ts</w>
lo se</w>
lev ant</w>
le ts</w>
l is
l ec
l am
kil l
ke y
k n
it ting</w>
is c
ir on</w>
independ ence</w>
incl udes</w>
inc ident</w>
in stru
hus sa
hi z
hi v</w>
ha ss
h is
h es</w>
h ang
gu ards</w>
gr an
govern ments</w>
g ori
far mers</w>
fam ili
f a</w>
extremis t</w>
extrem ely</w>
exec u
establ ishment</w>
entre prene
ent al</w>
ed ge</w>
dri ving</w>
do gs</w>
de ad
d ust</w>
d in</w>
cou ple</w>
consid er
compu ter</w>
co l</w>
cl er
circum stances</w>
ci vilians</w>
charac ter</w>
char lie</w>
chap ter</w>
chang ing</w>
cer ti
cer em
cel ebr
cap tured</w>
candi dates</w>
candi date</w>
c and
c ali
busin esses</w>
br inging</w>
bot tom</w>
bom bing</w>
bel la</w>
be gun</w>
bb c</w>
b ought</w>
app lied</w>
ap pl
ann a</w>
ang el
agricul ture</w>
ad d</w>
1 4
we as
war ned</w>
wa ste</w>
vic tory</w>
the at
th row</w>
th or
tem per
tel e
te es</w>
t one</w>
t led</w>
susp ect</w>
sur r
suc ce
stor e</w>
spor ts</w>
sovi et</w>
sol utions</w>
softw are</w>
shou ted</w>
sh ops</w>
see k</w>
sat ur
s ick</w>
ro oms</w>
ro man
ro lled</w>
resist ance</w>
requi res</w>
represent atives</w>
repe ated</w>
regist ered</w>
reg ular</w>
ref used</w>
reali zed</w>
re move</w>
re levant</w>
re al
ra w</w>
ques tion
previ ously</w>
pre c
p aul</w>
our ed</w>
or ed</w>
on y
nor thern</w>
no se</w>
neighb our
my ster
moun tains</w>
mor al</w>
mo hamed</w>
mo d
min ds</w>
men tion</w>
me ters</w>
leng th</w>
leg isl
le tters</w>
lat est</w>
lab our</w>
l in</w>
k en
it ors</w>
ish es</w>
inst ant</w>
i ved</w>
i i</w>
hun g</w>
hor ri
hom es</w>
heav en</w>
head ed</w>
he l</w>
he at</w>
han ded</w>
g is</w>
fun ds</w>
foun d
f ru
ev il</w>
enti rely</w>
en ge</w>
electr on
dro pped</w>
doc tors</w>
disa ster</w>
dis ease</w>
dev ices</w>
dem ands</w>
def ense</w>
de ep
d p</w>
d less</w>
d am</w>
cre ature</w>
cr y
corru ption</w>
constitu tion</w>
consid ering</w>
conf idence</w>
con centr
comple x</w>
competi tion</w>
comfor table</w>
com prehen
colon el</w>
chri st
care ful</w>
bus y</w>
bre ast</w>
bb ing</w>
b ound</w>
au tom
assist ance</w>
an ni
al liance</w>
adv ice</w>
ac he</w>
abdu l</w>
9 0</w>
3 5</w>
3 1</w>
. 4</w>
we ight</w>
we ather</w>
w are</w>
w an</w>
un fortun
tre at</w>
ton nes</w>
ti ght</w>
tho u</w>
thes is</w>
targe ted</w>
t ex
swe et</w>
suppor ted</w>
sugg est</w>
su rely</w>
stud ent</w>
stor ies</w>
ste pped</w>
ste el</w>
statis tics</w>
stat us</w>
stand ards</w>
st on</w>
si bly</w>
sh ore</w>
sel l</w>
scor ed</w>
satis fac
sal es</w>
sac ri
sa v
rul ing</w>
roy al</w>
re sear
re present</w>
re mo
re ek</w>
ra structure</w>
pro gress</w>
posi tions</w>
port ers</w>
po cket</w>
plan ned</w>
pic tures</w>
particip ation</w>
p h</w>
p ad
on to</w>
neg ative</w>
mut tered</w>
musli ms</w>
more over</w>
mon y</w>
mo stly</w>
milli ons</w>
me g
malfo y</w>
maj ority</w>
m p</w>
m az
m atters</w>
l i</w>
k id
k i</w>
k ate</w>
inf rastructure</w>
imple men
im por
ic ked</w>
i yev</w>
hon est</w>
ho tel</w>
gu ess</w>
gl anced</w>
g as
fun dam
flo od</w>
fin ding</w>
famili ar</w>
fal ling</w>
f es
exp ec
exist ing</w>
ex tr
ev ol
ev ent
es h</w>
equ al</w>
enor mous</w>
engine ering</w>
en try</w>
en for
el ling</w>
ed y</w>
ed itor</w>
ea stern</w>
e ars</w>
dr in
do cu
docu ment</w>
dist ur
dis ci
des k</w>
democr acy</w>
dem anded</w>
declar ed</w>
de fault</w>
d ent</w>
d ary</w>
conduc ted</w>
conclu ded</w>
con tr
comple ted</w>
communic ations</w>
coll ection</w>
co ali
cl ou
cho ose</w>
ce iling</w>
c er</w>
bur st</w>
bloc k</w>
ble w</w>
beau ty</w>
be d
b ye</w>
b right</w>
b la
as tic</w>
arab ia</w>
applic ations</w>
ap pointed</w>
ali zed</w>
ali an</w>
acce pt</w>
ab sor
20 12</w>
1 7
. 9</w>
z i
yel low</w>
y mp
y ment</w>
y de</w>
weas ley</w>
w and</w>
ur g
un cle</w>
u li
thro wn</w>
threat ened</w>
ther ine</w>
ter ly</w>
teh reek</w>
te acher</w>
t ons</w>
t j</w>
t ab
susp ici
suffici ent</w>
suff ering</w>
st up
squ are</w>
some body</w>
smo o
si gh
sho wing</w>
shar p</w>
serv ants</w>
see king</w>
seas on</w>
se l</w>
sco w</w>
s wee
s op
ren t</w>
rele ased</w>
recor d</w>
recogni zed</w>
re ver
r u</w>
r ab
prosecu tor</w>
pro sp
princi ple</w>
plan e</w>
pl ants</w>
pati ents</w>
particip ants</w>
p ush</w>
ov a</w>
out put</w>
our selves</w>
or ities</w>
om en
o logy</w>
net works</w>
mo tiv
mo scow</w>
manag ers</w>
lo v
lin ed</w>
li p</w>
le ment</w>
l en
kno wing</w>
kit ch
k un
jam ie</w>
j ack</w>
it ement</w>
ir s</w>
interest ing</w>
insurg ents</w>
initi ative</w>
ini tial</w>
im port</w>
her o
hass an</w>
ha u
ha grid</w>
h ttp</w>
gr ass</w>
gaz a</w>
g a</w>
func tions</w>
fu sion</w>
fr ame
fl at</w>
fil es</w>
fig ur
fif th</w>
fam ous</w>
fac ing</w>
exerc ise</w>
ex claimed</w>
eu r</w>
er ror</w>
er r
environ mental</w>
en han
e x</w>
e able</w>
dra w
dev ice</w>
den ied</w>
def end</w>
d at
cri tic
cra ft</w>
cor rid
conn ected</w>
con st
coali tion</w>
cl yde</w>
christ mas</w>
ch u
cel ls</w>
cat ch</w>
car bon</w>
cap able</w>
cal cul
ca therine</w>
c ous
c iting</w>
bu s</w>
big gest</w>
belon ging</w>
behavi or</w>
bal o
b y
b acks</w>
austr alia</w>
at mo
at eral</w>
assist ant</w>
appe ars</w>
ali zation</w>
al ing</w>
adv ance</w>
acc ident</w>
a x
3 00</w>
. org</w>
y ards</w>
wonder ful</w>
war ning</w>
vis ited</w>
ver i
ut ely</w>
us ers</w>
un k</w>
u z</w>
tw ice</w>
to w
tim ate</w>
ti ed</w>
ten d</w>
t aught</w>
t ap
sy n
suff er</w>
su m
stron gly</w>
stre am</w>
str ic
st ayed</w>
st ated</w>
sp ort</w>
sp ending</w>
si on
schedul ed</w>
sch ol
satur day</w>
s wi
s old</w>
s ession</w>
revol ution</w>
reve aled</w>
regi ons</w>
reg im
re public
re comm
ran g</w>
rail way</w>
r ang
prof ile</w>
pr oud</w>
polic ies</w>
pl ays</w>
pl at
piec es</w>
pha se</w>
ph il
palest ini
p on
p an</w>
ous ness</w>
origin al</w>
op en
op e</w>
on g
ob li
ne are
ne ar
n ic
murmur ed</w>
multi ple</w>
moun tain</w>
monitor ing</w>
mo on</w>
milit ancy</w>
meg gi
mat y</w>
m ere</w>
logi es</w>
loc ked</w>
le um</w>
l l
k o</w>
k ing
k ers</w>
jam es</w>
iz ing</w>
introduc ed</w>
inform ed</w>
in ations</w>
identi fy</w>
id ents</w>
hussa in</w>
holi day</w>
hol e</w>
hol ds</w>
happ ens</w>
gre y</w>
gr and</w>
gl ance</w>
gg ing</w>
g ory</w>
g est
fro do</w>
fr ed</w>
fortun e</w>
form ing</w>
for th</w>
fir ed</w>
fa ith</w>
f at</w>
exp ensive</w>
estim ated</w>
establ ishing</w>
est ate</w>
enfor cement</w>
educ ational</w>
ec tions</w>
e ous</w>
dri ver</w>
dri ven</w>
dre ss</w>
de struction</w>
de fic
d ness</w>
con struc
co de</w>
clo ser</w>
cl am
c ely</w>
c ate
bur g</w>
bre aking</w>
br it
bor ders</w>
be ating</w>
b low</w>
b in
b ent</w>
atten ded</w>
assess ment</w>
ash ley</w>
arrang ements</w>
applic ation</w>
ant a</w>
am es</w>
al maty</w>
al le
ad mir
activ ists</w>
a ur
a i
. tj</w>
y an
we b
vul ner
vo te</w>
vo ices</w>
val u
un it</w>
un happy</w>
tr ag
ton gue</w>
to ols</w>
tiv ity</w>
tion ary</w>
thu si
ther wise</w>
ther hood</w>
th ick</w>
ta xes</w>
t s
t an</w>
t ables</w>
swit ch</w>
su st
strugg le</w>
st ars</w>
spir it
soldi er</w>
sho ck</w>
shar ing</w>
shar ed</w>
sha pe</w>
sa ving</w>
s ought</w>
s ary</w>
s anc
s an</w>
road s</w>
ris ks</w>
ri er</w>
ri a</w>
res cu
requ ire</w>
reg ul
refuge es</w>
reduc ed</w>
reali ze</w>
r ace</w>
quar ter</w>
qu es</w>
pul ling</w>
prot est</w>
promis e</w>
program s</w>
proce du
pri mary</w>
pres sing</w>
practic es</w>
pl ain</w>
ph en
perf ec
pec uli
par ame
p in
p al</w>
p ace</w>
ow ners</w>
ow ned</w>
o therwise</w>
o logical</w>
no w
no tes</w>
ni ght
neigh bor
near by</w>
nat ur
n ad
model s</w>
mo hammad</w>
medic ine</w>
me at</w>
maxim um</w>
low ing</w>
lo an</w>
lib ya</w>
lev in</w>
lea ves</w>
le ep</w>
lan ds</w>
lab or</w>
l ake</w>
jour ney</w>
jord an</w>
institu te</w>
indic ated</w>
in et</w>
impro ved</w>
il legal</w>
ici ans</w>
h man</w>
gu id
gro wn</w>
gra ve</w>
go o
gentle man</w>
g gl
g ain</w>
friend ly</w>
frame work</w>
found ation</w>
form ation</w>
fore st</w>
for gotten</w>
fing er</w>
figh ters</w>
fer ring</w>
fe atures</w>
fas hi
fac ed</w>
f are</w>
extre me</w>
explo sion</w>
exper im
exc use</w>
er agon</w>
encour age</w>
en thusi
el ements</w>
eff ec
eas ier</w>
e tr
dro ve</w>
des ired</w>
dem ons</w>
dem on</w>
defin ed</w>
de pos
d z
d ying</w>
cul tiv
cu tting</w>
coun ter
cor respon
cont act</w>
consid erable</w>
condem ned</w>
con gress</w>
coff ee</w>
co ol</w>
clin ton</w>
clim ate</w>
christi an</w>
car rying</w>
cab inet</w>
c ard</w>
bur ied</w>
buil dings</w>
bu re
bre ath
bil ateral</w>
bal ance</w>
bak iyev</w>
b our
b is
att ack
ath le
at tered</w>
ast on
ass ass
ash a</w>
as leep</w>
ar ily</w>
ar i</w>
ann y</w>
al a</w>
air port</w>
ac le</w>
ac compan
ab u</w>
8 0</w>
3 3</w>
1 50</w>
wr it
wor st</w>
wor ry</w>
won dering</w>
wi z
wh it
we ar</w>
w is
w ake</w>
viol ent</w>
vie wed</w>
val jean</w>
un its</w>
u t</w>
ty pes</w>
tri um
thre w</w>
th a</w>
teh ran</w>
te sting</w>
ta il</w>
surve y</w>
suppor ting</w>
sub sequ
stron ger</w>
stan ds</w>
squ e
sp r
sp ell</w>
sp an
si sts</w>
si mul
shir t</w>
sh op
ser iously</w>
sen ding</w>
sel ling</w>
schem e</w>
sa ke</w>
s word</w>
s mu
rus h
respec tively</w>
resour ce</w>
resear ch
remo te</w>
rel ation</w>
refl ected</w>
recogni ze</w>
re min
re gre
psy cho
provin ces</w>
produc ed</w>
procedu res</w>
prin cess</w>
pr ise</w>
por ary</w>
phen omen
petro leum</w>
pas sion</w>
par tly</w>
par ti
par ad
palestini ans</w>
p ts</w>
p ick</w>
p ack</w>
oppos ite</w>
op tion</w>
op h
ol ymp
no dded</w>
ni a</w>
ner v
n i</w>
mu bar
mubar ak</w>
messa ges</w>
man age</w>
m and</w>
lo sses</w>
lat ter</w>
l ashk
kne es</w>
kitch en</w>
kin ds</w>
jur gis</w>
journal ist</w>
it ted</w>
is tics</w>
ir y</w>
innov ation</w>
inno cent</w>
in put</w>
in j
hur ry</w>
hop ed</w>
ho p</w>
ho g
har v
gu il
g ment</w>
g in
fr anc
fore head</w>
fo ol</w>
f s</w>
experi enced</w>
exper t</w>
exist ence</w>
exc itement</w>
exc ell
event ually</w>
ess ential</w>
er ly</w>
er ies</w>
en able</w>
el ing</w>
e tary</w>
e fully</w>
disci pl
di men
di a</w>
descri be</w>
deal ing</w>
de t
d ges</w>
d az
cre te</w>
cr iter
corrid or</w>
correc t</w>
cont ained</w>
con stantly</w>
comman ders</w>
comb at</w>
coll ected</w>
cla im</w>
cl ar
cho sen</w>
champ i
ch est</w>
certi fic
c es
bro ws</w>
bro therhood</w>
bro o
brit ain</w>
brea thing</w>
bre ad</w>
boo ts</w>
bl ame</w>
be l</w>
b by</w>
b bed</w>
b are
audi ence</w>
au d
atmo sphere</w>
arch it
arab s</w>
apparen tly</w>
app ly</w>
an ony
al ism</w>
al d</w>
ak ed</w>
ah mad</w>
ag ged</w>
adv anced</w>
ad ver
academ ic</w>
ac compl
4 5</w>
3 8</w>
/ /
. ru</w>
. e</w>
z er
y i
wor thy</w>
wor l
wil li
wel come</w>
web site</w>
weal th</w>
we aring</w>
w w</w>
w re
vir tu
ver sion</w>
vehic les</w>
vehic le</w>
v i</w>
u pper</w>
u k
trans l
to ol</w>
th en
t yr
supp lies</w>
summ it</w>
stor m</w>
st yle</w>
st um
st are</w>
st ages</w>
st able</w>
sof tly</w>
sing ing</w>
signific ance</w>
sig n
si zed</w>
si ves</w>
sh an</w>
se in</w>
resid ent</w>
requi rements</w>
represent ative</w>
rem aining</w>
re su
re l</w>
pun ishment</w>
pul l</w>
proper ties</w>
pro b
pri de</w>
pre ce
policem en</w>
po tter</w>
po ol</w>
pi pel
perfec tly</w>
p ers</w>
organiz ed</w>
ob jects</w>
n an
mur der</w>
mov ements</w>
mis sed</w>
minim um</w>
meggi e</w>
manag ing</w>
lun ch</w>
lo sing</w>
lo ans</w>
laun ch</w>
ker nel</w>
ke ys</w>
k har
k at
k ari
k and
j o</w>
j au
jau r</w>
it ations</w>
it ate</w>
it ary</w>
inv ited</w>
institu tions</w>
industri es</w>
in sist
in ced</w>
impro ving</w>
impres sion</w>
imple ment</w>
im ports</w>
id ently</w>
hous ing</w>
hou se
ho o
hel ping</w>
he aring</w>
gul f</w>
gu ide</w>
gr ac
gori th
gli mp
gi ant</w>
ger many</w>
gentle men</w>
g and
fo cus
flow ers</w>
fin ish</w>
fif ty</w>
fif teen</w>
fes tiv
fac tor</w>
f ain
extr a</w>
el i
el ected</w>
ed ly</w>
du ties</w>
dom ain</w>
docum ents</w>
depend ent</w>
de tec
dam aged</w>
dam age</w>
d il
cre ation</w>
cr ying</w>
cour age</w>
cor ro
continu es</w>
con serv
comprehen sive</w>
commit ted</w>
clo sely</w>
chall enge</w>
ch ose</w>
cerem ony</w>
cent res</w>
car lis
campa ig
ca using</w>
bran ch</w>
bor e</w>
bl in
bl an
bir th</w>
ban ned</w>
balo ch
back ground</w>
ba jaur</w>
b ou
b ac
aw are
attribu ted</w>
ati on
assu med</w>
ash es</w>
as sets</w>
as ide</w>
ar ian</w>
ap s</w>
ap prov
ap preci
ap art
any where</w>
anx ious</w>
announ cement</w>
analy st</w>
an drew</w>
am ir</w>
al lows</w>
al gorith
ag ement</w>
addre ssing</w>
ad mitted</w>
ac tors</w>
abdul lah</w>
ab b
ab and
a vi
a po
a im</w>
a har</w>
a er
4 00</w>
3 6</w>
z y</w>
z o
ye ah</w>
wor e</w>
wol ves</w>
willi am</w>
wer e
was h</w>
w ww</w>
vis iting</w>
ve ter
v ital</w>
v es
v an</w>
ur ged</w>
univer se</w>
u k</w>
tw ist
trou bled</w>
transi tion</w>
tr ack</w>
ton ight</w>
to t
tion ally</w>
thom as</w>
the ory</w>
the a</w>
techni ques</w>
t um
t ment</w>
t ar</w>
success fully</w>
sub jects</w>
su s</w>
stri p</w>
stre tched</w>
strategi es</w>
stic k</w>
st le</w>
st ance</w>
spo ken</w>
spirit ual</w>
sp ar
sn ape</w>
si ties</w>
she et</w>
sha king</w>
sha dows</w>
sh ru
sen si
sel ected</w>
sel ect</w>
sear ching</w>
se tte</w>
scre en</w>
sa ved</w>
rest aur
resp ond</w>
resol ved</w>
repres ents</w>
regar ded</w>
reduc tion</w>
recogni tion</w>
re r</w>
re moved</w>
rap idly</w>
r ural</w>
r ist</w>
qu een</w>
pre ven
prac tical</w>
pra yers</w>
pos sibly</w>
poli tici
play er</w>
pl u
per formed</w>
par k</w>
pain ful</w>
p ause</w>
ow ner</w>
or ation</w>
oper ational</w>
op ti
op posed</w>
ol ly</w>
ol es
obvi ously</w>
natur ally</w>
nation wide</w>
nat asha</w>
na to</w>
n om
mus e
mp tion</w>
mo vi
mo thers</w>
mir ror</w>
mat ches</w>
manufac turing</w>
manag er</w>
man i
mal e</w>
m bled</w>
leag ues</w>
lashk ar</w>
l t</w>
ku wait</w>
kh at
kand ahar</w>
k ar</w>
ji had</w>
jap anese</w>
ir ing</w>
ir i</w>
introduc tion</w>
ini ons</w>
inc t</w>
in y</w>
immedi ate</w>
im posed</w>
im pe
ici an</w>
ic a</w>
hy po
hon or</w>
hen ry</w>
h id</w>
great est</w>
grand father</w>
gr ounds</w>
ge o
gaz e</w>
g le</w>
g ence</w>
g ath
gath ered</w>
g all
fu n</w>
fore ver</w>
for t</w>
feder ation</w>
fav or
fac ts</w>
f c</w>
f anny</w>
exten ded</w>
exec ution</w>
ex trac
ess ing</w>
enjo y</w>
en tering</w>
emplo yment</w>
effici ent</w>
e em</w>
dra ft</w>
do zen</w>
distr icts</w>
dist ingu
dis h</w>
dis co
dir ty</w>
differ ences</w>
di vision</w>
di g
dev il</w>
deli ver</w>
deep ly</w>
dec re
dec ide</w>
d le
d ged</w>
d al
custom ers</w>
cu r</w>
contrac t</w>
cont ain</w>
con crete</w>
compl ain
co o
clo sing</w>
chan nel</w>
ch o</w>
carlis le</w>
c ell
c amer
bur ning</w>
br ac
ber ing</w>
believ es</w>
behavi our</w>
becom es</w>
be ast</w>
be aring</w>
ban ds</w>
baloch istan</w>
b ones</w>
b id</w>
b ell</w>
att ached</w>
atic ally</w>
at o
at en</w>
associ ated</w>
ass es</w>
asp ects</w>
arrang ed</w>
ar af
approv al</w>
appe al</w>
apparen t</w>
am end
al ty</w>
al ties</w>
al ice</w>
afgh ans</w>
ad ju
ad ing</w>
absor bed</w>
absol utely</w>
ab s
ab del</w>
a ims</w>
6 00</w>
4 4</w>
4 1</w>
3 2</w>
19 7
yi el
w et</w>
vol un
vill ages</w>
v oc
v ice</w>
ut tered</w>
ul l</w>
u c
tun nel</w>
tun is
transp or
transp aren
tr ic
tol er
ti le</w>
ti ghtly</w>
thin ks</w>
the e</w>
ten ded</w>
techno logies</w>
ta x
t le</w>
t ful</w>
t ari
t ag
t ack
super vis
sub mitted</w>
stu ff</w>
stu died</w>
stead y</w>
stat ements</w>
st al
sp on
sop hi
sophi e</w>
sli pped</w>
sk i
sil ly</w>
shoo ting</w>
shar on</w>
secon ds</w>
scar cely</w>
satisfac tion</w>
s ons</w>
s ke
s ex
s al</w>
rus h</w>
ri de</w>
restor e</w>
repres ented</w>
regre t</w>
regar dless</w>
reason able</w>
re ment</w>
re hman</w>
rap id</w>
r are</w>
quo ting</w>
proto col</w>
prote sts</w>
prote sters</w>
proper ly</w>
promo te</w>
proce d
pro of</w>
pris ing</w>
pri or</w>
pleas ant</w>
pl enty</w>
pipel ine</w>
pic ked</w>
perce ived</w>
per form</w>
pen etr
pat ro
part nership</w>
p ound</w>
p ity</w>
p in</w>
ov na</w>
op inions</w>
off ering</w>
occas i
obvi ous</w>
ob st
mon d</w>
mo od</w>
min ent</w>
met res</w>
medi um</w>
mach ines</w>
m our
m i</w>
lu ck</w>
lin ked</w>
lim it</w>
le gen
le aned</w>
law yer</w>
la yer</w>
kill ings</w>
kee per</w>
kad y
k gs</w>
jum p</w>
ital y</w>
it ely</w>
ir r
instruc tions</w>
indic ate</w>
increas es</w>
in to
in ter</w>
in sp
im men
il li
i tion</w>
i j
hus sein</w>
hon our</w>
hon ey</w>
hol es</w>
hel lo</w>
head quarters</w>
h its</w>
gr ade</w>
g ently</w>
fur ther
fun ny</w>
fun ding</w>
fron tier</w>
fr ame</w>
fo c
fle w</w>
fl ag
fav our
f light</w>
f ice</w>
f ata</w>
explo sives</w>
exp end
expend it
ex por
ev idently</w>
electron ic</w>
electr ical</w>
eag er</w>
e z</w>
e yed</w>
e es</w>
e ar</w>
drin king</w>
dre ams</w>
doro thea</w>
div ided</w>
discus sion</w>
dis crimin
dis cre
defic it</w>
dea ths</w>
dav id</w>
dat ab
d un
d led</w>
cy cle</w>
cro wn</w>
cre ating</w>
cous in</w>
cor ps</w>
conv inced</w>
const ant</w>
con ven
con figur
complic ated</w>
communic ation</w>
commer ce</w>
com mon
co sette</w>
co ach</w>
clou ds</w>
cla ims</w>
cl assi
citiz en</w>
cir cul
cir cle</w>
char les</w>
c kets</w>
c au
busin ess
bur n</w>
br illi
bis hop</w>
ber g</w>
benef its</w>
bagh dad</w>
b oun
b id
b are</w>
az uz</w>
aware ness</w>
ati vely</w>
araf at</w>
ar ou
ap poin
ap ping</w>
anni ver
ann e</w>
analy sts</w>
agre ements</w>
after wards</w>
afric a</w>
aff ect</w>
ad ap
ab led</w>
a is</w>
a il</w>
a c</w>
8 00</w>
4 6</w>
199 0</w>
. com</w>
zz y</w>
y eva</w>
wor ried</w>
wit ness</w>
wh en
w ill
vulner able</w>
vis i
victi m</w>
vic tor
uzbe ks</w>
ush ing</w>
univer sities</w>
twist ed</w>
tri p</w>
tou ri
tor n</w>
til ity</w>
ti li
territ ory</w>
tele phone</w>
tel ls</w>
taji ks</w>
t our</w>
surren der</w>
sup porters</w>
sud an</w>
stup id</w>
stud ying</w>
stre ss</w>
st ones</w>
span ish</w>
slee ping</w>
sk ir
sk i</w>
situ ations</w>
sit es</w>
sigh ed</w>
si m
shar p
sha me</w>
sh ouldn</w>
ser ved</w>
sent enced</w>
sco t
sa int</w>
sa ge</w>
s ri</w>
s lo
s light</w>
s enti
s cent</w>
s ali
ru m
rou te</w>
reser ves</w>
rescu e</w>
repu tation</w>
repor tedly</w>
re volu
re ss</w>
re forms</w>
r ass
r akh
quo ted</w>
qu ake</w>
pu ts</w>
process ing</w>
pro ved</w>
pri orities</w>
prepar ing</w>
pre p
pre gn
phenomen on</w>
ph ones</w>
per man
peac eful</w>
pe ter</w>
pe t</w>
pe as
particip ate</w>
pap ers</w>
p y</w>
p it
p ical</w>
p har
p ages</w>
on ships</w>
on er</w>
on a</w>
off ices</w>
off ers</w>
obser ve</w>
obj ective</w>
obj ec
o ce
neighbour ing</w>
ne u
nar row</w>
n an</w>
moun ted</w>
mon etary</w>
mo di
min es</w>
mid dle
mi ghty</w>
mel an
mar ked</w>
mar ius</w>
ma x
m ex
mex ic
lu x
lo v</w>
lo s</w>
liqu id</w>
le gi
lan ded</w>
l yr
l an</w>
l ac
kni fe</w>
k ind
jun i</w>
je al
jan e</w>
ja il</w>
it arian</w>
integr ated</w>
in er</w>
improv ement</w>
im ing</w>
im am</w>
ic king</w>
hy per
hor ror</w>
ho st</w>
hil ls</w>
hi r</w>
hi de</w>
hel ps</w>
hel pl
hand le</w>
h r</w>
h at
gu ests</w>
gri ef</w>
gre e
grad u
gil ani</w>
gent le</w>
g ant</w>
further more</w>
for um</w>
for nia</w>
fol ded</w>
ff s</w>
festiv al</w>
fair ly</w>
fac ul
fa st
fa re
f ting</w>
f ra
f ate</w>
f an</w>
eye brows</w>
exhi bition</w>
exam ine</w>
enjo yed</w>
eng aged</w>
emo tion</w>
el iz
effici ency</w>
ear th
e c</w>
dy nam
dul l</w>
du le</w>
dr ust</w>
dr ank</w>
distribu tion</w>
dispu te</w>
discus sions</w>
dis play</w>
determin e</w>
destro y</w>
des per
dep th</w>
del igh
del ic
dec line</w>
de tained</w>
criter ia</w>
coun tr
corro sion</w>
cop y</w>
cop e</w>
convic tion</w>
consu mer</w>
concer ns</w>
con ve
compar ison</w>
comp en
commun ities</w>
commit ment</w>
col or</w>
chec k
character istics</w>
cap it
cali fornia</w>
ca sting</w>
bur ned</w>
bro thers</w>
brilli ant</w>
bo w
bir d</w>
bel ong</w>
b and
ay ing</w>
auth or</w>
attack ers</w>
ass y</w>
as y
as sa
as ing</w>
ar iz
appl ause</w>
ap ers</w>
ant on
ang le</w>
an ticip
an th
an e</w>
am i</w>
am bi
allow ing</w>
al ger
al er
air craft</w>
aff ir
af i</w>
addre ssed</w>
ad i</w>
acad emy</w>
ac tual</w>
ac les</w>
abs ence</w>
abb as</w>
a q
6 6</w>
5 5</w>
4 8</w>
4 7</w>
2 6
1 5
z e
y em
y ass
wor n</w>
wo o
witn essed</w>
whe at</w>
war ts</w>
w ars</w>
vo ters</w>
v end
v ement</w>
v ag
ut terly</w>
uni que</w>
uni form</w>
unfortun ately</w>
un like</w>
un easy</w>
u tility</w>
tunis ia</w>
trans ferred</w>
tow ns</w>
tour nam
to b
tiv eness</w>
ten ance</w>
temper ature</w>
tem porary</w>
teach ing</w>
t less</w>
t ence</w>
t ank</w>
symp ath
sw iss</w>
survi v
su pre
str ict</w>
ste pping</w>
speci fic
spec tac
sol ve</w>
smo ke</w>
sm ith</w>
sle pt</w>
sig ns</w>
si eur</w>
shi el
sev ere</w>
sett le</w>
ser ver</w>
ser ge
se where</w>
se es</w>
scho ol
sc ru
san cho</w>
sa tions</w>
sa mp
s ong</w>
s nat
s k</w>
s and</w>
run s</w>
ru ined</w>
road side</w>
ro v</w>
ro sto
ro of</w>
ri g
repe at</w>
reduc ing</w>
reco vered</w>
rec e
re place</w>
re la
re in
re construction</w>
re aching</w>
r o</w>
r he
r ay</w>
r ation</w>
prov isi
prop ag
program mes</w>
proced ure</w>
pro por
pris es</w>
pres er
prep are</w>
pre fer</w>
pl us</w>
pl ed</w>
photo graph
peculi ar</w>
pati ently</w>
pan ic</w>
pa used</w>
p rud
p m</w>
p ist
ov itch</w>
os ity</w>
organ ised</w>
op ium</w>
od d</w>
occas ion</w>
oc cur</w>
o be
nor th
naz ar
n ine
muse um</w>
mun d</w>
mul ti</w>
mosqu es</w>
mor row</w>
mon te</w>
mon sieur</w>
mon itor</w>
mo ves</w>
mo de</w>
mist ake</w>
min ing</w>
mil k</w>
me tt</w>
me tr
mas sive</w>
mar tyr
mal ak
main tain</w>
lin ks</w>
lic en
li fted</w>
le on</w>
le e</w>
l ang
kore a</w>
kne e</w>
kn b</w>
k ru
jud icial</w>
jud gment</w>
j al
it ems</w>
it alian</w>
invol vement</w>
interru pted</w>
intel lec
in ner</w>
immen se</w>
imag ined</w>
im u</w>
im plic
im mun
il le</w>
id ing</w>
i bra
i b
hypo thesis</w>
hun ger</w>
human ity</w>
hosp it
hol ders</w>
hog warts</w>
hel mand</w>
he ight</w>
hay at</w>
har mony</w>
happ ening</w>
hang ing</w>
hand some</w>
hand ling</w>
grap h</w>
gra v
gol den</w>
gn ity</w>
glimp se</w>
gi ble</w>
gen u
ge tty</w>
ga ther
form ul
fol lows</w>
fle e
fl esh</w>
fl ash</w>
fin dings</w>
fi er
fer ences</w>
fe ars</w>
favor ite</w>
fashi on</w>
far ther</w>
fa x</w>
f ill</w>
f ed</w>
f an
explo sive</w>
exc ited</w>
exam ined</w>
ex tra
et c</w>
ess ly</w>
equ ally</w>
entreprene ur
enter prise</w>
eng ine</w>
en ting</w>
en de
employe e</w>
emplo yed</w>
em mett</w>
em b
ell a</w>
eliz abe
elizabe th</w>
el sewhere</w>
el ders</w>
ed mund</w>
ec e</w>
distribu ted</w>
difficul ties</w>
di m</w>
degre e</w>
def end
dec ree</w>
dec ades</w>
dar ed</w>
dam n</w>
d ging</w>
curren cy</w>
cur ious</w>
cu b
cr ou
cour ts</w>
corpor ate</w>
cor ners</w>
conven i
conv enti
contribu te</w>
cont ains</w>
constitu tional</w>
consider ation</w>
conf ess</w>
concer ning</w>
conce pt</w>
con vention</w>
con fusion</w>
complain ts</w>
comb ined</w>
coll ap
col um
cli ent</w>
class es</w>
civil ian</w>
char ged</w>
champi onship</w>
cha in</w>
ch al
certain ty</w>
cat aly
car ds</w>
cap ture</w>
can ada</w>
c af
business men</w>
bott le</w>
boo st</w>
bom b
bo w</w>
bl ack
be t</w>
be g</w>
b ited</w>
b en</w>
b az
b att
azi z</w>
au t
attemp ts</w>
ati n</w>
at tit
ass ure</w>
asp ect</w>
ash ing</w>
as es</w>
appro xim
appro ached</w>
anth ony</w>
answ ers</w>
anniver sary</w>
ann ually</w>
alleg ed</w>
alexand ria</w>
al am</w>
administ ered</w>
ad s</w>
accoun ting</w>
accor dance</w>
accompan ied</w>
ab bed</w>
5 7</w>
4 2</w>
20 13</w>
y ours</w>
wo ods</w>
when ever</w>
whe el</w>
wh o
wer en</w>
wel com
welcom ed</w>
wed ding</w>
wat ers</w>
wat er
wa it
w ning</w>
virtu e</w>
valu able</w>
v ast</w>
us a</w>
ur ban</w>
up set</w>
uni tion</w>
ul ts</w>
turk ish</w>
tri bun
tra il</w>
tr ained</w>
touri sts</w>
tot ally</w>
tob acc
tobacc o</w>
tion ed</w>
theat re</w>
th ful</w>
ter y</w>
ten tion</w>
ten der</w>
tal ity</w>
ta ste</w>
t z</w>
t ness</w>
t es
t ching</w>
t ance</w>
sym bo
sw im
surr ounded</w>
succe eded</w>
sub scri
su d</w>
struc tures</w>
str ang
stor age</w>
st air
spec tive</w>
speak er</w>
soli d</w>
so oner</w>
so il</w>
shor tly</w>
sh ining</w>
sh a</w>
sett lement</w>
sensi tive</w>
sem i</w>
scot land</w>
scienti sts</w>
sci ences</w>
sc ope</w>
samp le</w>
sal t</w>
sacri fice</w>
sa ma</w>
s mar
s burg</w>
s and
rul ed</w>
ru e</w>
rober t</w>
ro v
ro de</w>
ri ding</w>
resol ution</w>
remar k
rej ected</w>
ref use</w>
ref er</w>
recomm end
reco very</w>
rec alled</w>
rec all</w>
re tired</w>
re stra
re mov
remov al</w>
ran dom</w>
r ough</w>
que tta</w>
q m</w>
produc tive</w>
pro mp
pres ented</w>
pra ised</w>
pra ise</w>
pr e</w>
pos es</w>
politici ans</w>
pol y
po leon</w>
po e
plan es</w>
pl ing</w>
pi ano</w>
pe ter
pe t
patter n</w>
pain ted</w>
p ure</w>
p ink</w>
orig in</w>
ori entation</w>
organiz ational</w>
or ate</w>
op tions</w>
on ing</w>
ob tain</w>
ob lig
no tion</w>
no de</w>
ni kov</w>
newsp apers</w>
nerv ous</w>
necess ity</w>
na poleon</w>
n go</w>
mu st
mu m</w>
mit ya</w>
mil e</w>
mer ely</w>
mem ories</w>
mem or
mechan ism</w>
meas u
me e</w>
mar tin</w>
mar ia</w>
mak ers</w>
ma ster
ma hm
mahm oud</w>
m t</w>
m o</w>
m ess</w>
m ass
lyr a</w>
ly d
lyd gate</w>
lon ely</w>
liter ature</w>
lim its</w>
li sted</w>
lear nt</w>
lead s</w>
lab or
la sted</w>
l um
l loy
kis sed</w>
kar zai</w>
kady ev
k am
jord anian</w>
joh n
is ol
is ms</w>
is i</w>
inter pre
inten tion</w>
insur ance</w>
insist ed</w>
infl ation</w>
indic ates</w>
inc idents</w>
in ha
in ate</w>
ig n
i van
i k
hun gry</w>
hi c</w>
hero in</w>
hel p
har m</w>
h an</w>
gun s</w>
gu l</w>
gi an</w>
gh o
gand al
gandal f</w>
g knb</w>
g ger</w>
g an</w>
g ained</w>
fur n
func tion
frequ ency</w>
fre sh
for ty</w>
fla g</w>
fin ed</w>
fi es</w>
ff ed</w>
fe els</w>
fe ature</w>
fe ared</w>
fe ar
far m</w>
fal se</w>
fal ls</w>
fac tory</w>
f ounded</w>
experi ences</w>
execu tive</w>
ex posed</w>
ex plan
esti mates</w>
enthusi as
ent ures</w>
ent ine</w>
en em
enem ies</w>
emb assy</w>
em per
em be
el im
el ev
eas es</w>
dre ad
dr am
doro thy</w>
do v</w>
dis gu
dis cover</w>
di gnity</w>
deser t</w>
defe ated</w>
declar ation</w>
deb ts</w>
de ter
d u</w>
d are</w>
d ar</w>
d ag
crimin als</w>
cri tici
cre atures</w>
corpor ation</w>
contribu ted</w>
contr ast</w>
consequ ences</w>
consci ence</w>
con sol
competi tive</w>
coll ect</w>
clo ak</w>
cli ents</w>
cl ing</w>
ch ann
cas u
car din
ca uses</w>
ca stle</w>
bure au</w>
bri ef
break fast</w>
boo k
bom ber</w>
bit ter</w>
ber t</w>
bed room</w>
be kov</w>
bar a</w>
bab a</w>
ba g</w>
b acked</w>
ay ev</w>
auth ors</w>
aut onom
at ul
as har
are s</w>
ar o</w>
ar kadyev
ar di
appro ve</w>
apart ment</w>
ap ple</w>
ap l
any more</w>
anx iety</w>
ann on</w>
an ia</w>
an ding</w>
amm unition</w>
al lies</w>
ak zai</w>
ah m</w>
agre eable</w>
ag gres
ad m
activ ely</w>
accoun ts</w>
acce p
a e</w>
6 5</w>
3 4</w>
1 6
0 2</w>
. 0
z u
z ak
writ er</w>
win ning</w>
wid es
wides pre
widespre ad</w>
wel fare</w>
wee kly</w>
weak ness</w>
volun te
vis itors</w>
ver e
ven ture</w>
vari ables</w>
var iety</w>
val entine</w>
val ent</w>
v y</w>
v am
ur y</w>
un ic
tru ly</w>
tren ds</w>
treas ure</w>
trans fer</w>
tor ies</w>
toler ance</w>
to wer</w>
ti ous</w>
ti e</w>
tho s</w>
ther ap
th ough
th ed</w>
terri fied</w>
ten s</w>
temp er</w>
te ar</w>
tar gets</w>
t esti
t ability</w>
supre me</w>
stri king</w>
stri kes</w>
ste pan</w>
statis tical</w>
star ts</w>
st ag
speci al
sp are</w>
sor ts</w>
so vere
so m</w>
sli p</w>
sist ers</w>
sig nal</w>
si vely</w>
shop ping</w>
sho cked</w>
she ep</w>
sha re
sh ud
sett ings</w>
serv ant</w>
separ ated</w>
sent ence</w>
secon dary</w>
se x</w>
se ated</w>
schol ars</w>
sc and
sal e</w>
sa f
s ni
s n</w>
s in</w>
ru p
ro ot</w>
ro o
reven ues</w>
restaur ant</w>
research ers</w>
requ ested</w>
reli eved</w>
rel uc
rel ative</w>
refl ection</w>
recei ving</w>
rece ption</w>
rec oll
read er</w>
re turning</w>
re treat</w>
re stric
re serv
re placed</w>
re ne
re ar</w>
rati o</w>
ra rely</w>
q at
q ad
promo ting</w>
prof it</w>
prin t</w>
preven ted</w>
pre mi
post p
poss ession</w>
pos ure</w>
policem an</w>
po t
po is
pl ying</w>
pl ate</w>
pl ain
phil os
philos oph
persu ade</w>
person ality</w>
per spective</w>
per cent
percent age</w>
peop les</w>
patter ns</w>
part ner</w>
palest ine</w>
pal ace</w>
pakist an
pakistan is</w>
p c
or akzai</w>
oper ated</w>
on es
oce an</w>
occup ied</w>
objec tives</w>
neighbor hood</w>
neare r</w>
ne ed
nati ves</w>
na p</w>
n ever
n ev
mu tual</w>
movi e</w>
mo tor
mo hm
mohm and</w>
mo bil
mi xed</w>
mer ch
me g</w>
max im</w>
mat ure</w>
mat ov</w>
marg are
mar ks</w>
malak and</w>
main ly</w>
ma ul
ma h
m ol
m ity</w>
m ar</w>
li sts</w>
lea ther</w>
le g</w>
le ap
le aning</w>
le an</w>
ko hat</w>
kit ty</w>
kid n
k id</w>
k al
jus ti
ju li
jo ke</w>
j ected</w>
is sa</w>
invol ving</w>
inv isi
intellec tual</w>
instru ments</w>
inc enti
in k
in ary</w>
im f</w>
il e
identi ty</w>
ick en</w>
ici ous</w>
i res</w>
i f
hyper link</w>
hy dr
ho sti
ho l</w>
histor ic</w>
heal thy</w>
har sh</w>
ha bit</w>
h ence</w>
gu y</w>
gran ted</w>
gra in</w>
gr ant</w>
gl asses</w>
gi ft</w>
gest ure</w>
gener ous</w>
gad d
gadd afi</w>
ga p</w>
g le
g ers</w>
g dp</w>
g au
g age</w>
fundam ent
fr ag
for got</w>
for cing</w>
foc used</w>
fi x</w>
fe asi
fair fax</w>
fa z
fa il</w>
f ty</w>
f ought</w>
f loo
f ish
f ati
exten sive</w>
expendit ure</w>
exp ecting</w>
exp and</w>
ex plic
ex pe
ex hau
ex clu
every where</w>
escap ed</w>
entrepreneur ship</w>
end a</w>
encour aging</w>
en a</w>
em is
el le</w>
el f</w>
el ement</w>
ei gh
ef f</w>
ear ned</w>
ear n</w>
e h</w>
dri vers</w>
do z
discipl ine</w>
dis eases</w>
diplom atic</w>
din ing</w>
di et</w>
di ag
develop ments</w>
des cen
dep lo
dep ends</w>
del ay</w>
degre es</w>
dec reas
dec lined</w>
dec ent</w>
deb ate</w>
datab ase</w>
d war
d nt</w>
d est</w>
d ant</w>
d ancing</w>
cro ssing</w>
cro ssed</w>
craw ford</w>
cor e</w>
conventi onal</w>
continu ous</w>
consu mers</w>
consist ent</w>
configur ation</w>
conf isc
conf essed</w>
con sists</w>
con fron
con c
co vering</w>
co inc
co ast</w>
cle ver</w>
cl ick</w>
ck y</w>
che ap</w>
ch est
ch er</w>
cent ers</w>
can cer</w>
c in
c be</w>
bu ying</w>
brea the</w>
br and</w>
bor ro
bomb ings</w>
bloo dy</w>
bl ess</w>
be a
ay a</w>
attrac ted</w>
at ri
assu me</w>
ass ured</w>
as hamed</w>
arti sts</w>
arri ve</w>
argu ed</w>
archit ec
ar se</w>
ar m
ar ise</w>
appro aches</w>
appoin tment</w>
an no
an dre
am id</w>
alexand rov
al lah</w>
al isation</w>
ak s</w>
aff ili
af ford</w>
adop t</w>
administr ative</w>
ad equ
acquain ted</w>
ac tor</w>
ac cur
ab sent</w>
ab be</w>
a a</w>
9 5</w>
7 5</w>
4 9</w>
z ones</w>
yo sha</w>
y a
x i
wo ke</w>
wit ch</w>
wis dom</w>
wid ely</w>
wi ves</w>
wi ki
where as</w>
wh el
wh ale</w>
wee k
war ded</w>
wa ved</w>
w ounds</w>
w ings</w>
w i</w>
w ell
vol dem
voldem ort</w>
visi ble</w>
veri fy</w>
val idity</w>
v s</w>
v ain</w>
un ted</w>
ul ti
ulti mat
ul ous</w>
u d</w>
ty pic
typic ally</w>
tren d</w>
tradi tion</w>
tournam ent</w>
tor ate</w>
ton y</w>
ti p</w>
then ardi
territ ories</w>
termin al</w>
ten n
temp le</w>
te sted</w>
ta h
t ably</w>
sympath y</w>
sy ed</w>
swe pt</w>
susp ended</w>
surviv ors</w>
sul tan</w>
subsequ ent</w>
su peri
su m</w>
su itable</w>
stu b
stron gest</w>
streng then</w>
sto res</w>
ster ing</w>
stair case</w>
st ar</w>
spl it</w>
speci fied</w>
sp rang</w>
sp ac
sol ved</w>
sli de</w>
sle ep
sk ill</w>
six th</w>
si l</w>
shar if</w>
sha w</w>
sha ke</w>
sh annon</w>
ser ving</w>
separ ation</w>
sec tors</w>
se y</w>
scre aming</w>
satis fy</w>
satis fied</w>
sanc tions</w>
sa y
s wal
s ick
s che
sche dule</w>
s ank</w>
rout ine</w>
rol ling</w>
ro ws</w>
ro ots</w>
ri x</w>
resol ve</w>
reser ved</w>
res ist</w>
republic an</w>
repor ting</w>
repor ters</w>
ren es
renes mee</w>
remin ded</w>
relati onships</w>
reg ulation</w>
refl ect</w>
recor ded</w>
re treated</w>
re serve</w>
re ference</w>
ran ks</w>
ran king</w>
rakh mon</w>
ra p</w>
r y
r hy
quanti ty</w>
qu it</w>
purcha se</w>
pu r</w>
pu p
prot ected</w>
promis es</w>
prof its</w>
pro minent</w>
priv ati
princi pal</w>
pres ents</w>
pres cri
pre li
preli min
prelimin ary</w>
pr on
pr o</w>
pp ers</w>
poss essed</w>
poe try</w>
po sts</w>
pl un
pl astic</w>
phar mac
peter sburg</w>
persu aded</w>
perman ent</w>
per sist
per mitted</w>
pat ri
pass word</w>
par ted</w>
par aly
p ir
ow nership</w>
ough ly</w>
ou l</w>
on going</w>
on e
on ally</w>
ol en</w>
off ensive</w>
od a</w>
oblig ations</w>
o sama</w>
nu tri
no des</w>
no ble</w>
ni ghts</w>
n ab
mur do
mon thly</w>
mo ham
mis erable</w>
migr ation</w>
mid st</w>
meh sud</w>
meas ured</w>
marg in</w>
mar i
man g
maj est
majest y</w>
mag ical</w>
m s
lu c
loo se</w>
lo vely</w>
lo aded</w>
lloy d</w>
lib yan</w>
li vely</w>
li ft</w>
less ly</w>
leg ally</w>
le ys</w>
lar ry</w>
lang don</w>
lan ka</w>
la ying</w>
la sts</w>
l it</w>
l ers</w>
l anta</w>
kh ali
k or
k har</w>
k ash
ju st
jo e</w>
j i</w>
inv itation</w>
inter vention</w>
inten tions</w>
institu tion</w>
inst all
indi gn
in tim
in stantly</w>
in her
in form</w>
in ches</w>
impor ted</w>
implemen ting</w>
implemen ted</w>
illu str
ignor ed</w>
igh tened</w>
ic op
ic als</w>
i p</w>
i osity</w>
i kh
i ans</w>
human itarian</w>
hospit als</w>
horri ble</w>
hes itated</w>
her e
helpl ess</w>
help ful</w>
hel icop
head ing</w>
he i
han g</w>
h int</w>
guaran tee</w>
grap hic</w>
gr in
gr ay</w>
gr ate
govern mental</w>
go s</w>
gen e</w>
ge dly</w>
gaz ing</w>
gather ing</w>
g t</w>
g on
g ay</w>
g are
fol k</w>
fl or
fl es</w>
fl ames</w>
fin ds</w>
fin ancing</w>
feder ally</w>
fear ful</w>
fe ed
feed back</w>
fac e
f le</w>
f icial</w>
f ence</w>
f ans</w>
extrem ists</w>
extra ordinary</w>
expec tations</w>
exhau sted</w>
ex posure</w>
evalu ation</w>
er ad
erad ic
enhan ced</w>
end ers</w>
en su
emper or</w>
emo tions</w>
emo tional</w>
emer ged</w>
embar rass
ell en</w>
el der</w>
egypti ans</w>
effec tively</w>
ear nings</w>
e per</w>
e g
duc ed</w>
diver sity</w>
dist ant</w>
dis pos
determin ation</w>
desper ate</w>
der ly</w>
demon ata</w>
decre ase</w>
dead ly</w>
dar ling</w>
dam as
damas cus</w>
d wel
d or</w>
d ling</w>
d les</w>
d ated</w>
cur iosity</w>
cur b</w>
crow ded</w>
cris to</w>
coun ty</w>
coordin ation</w>
contro l
continu ally</w>
cont em
consequ ently</w>
conn ect</w>
conduc ting</w>
conce aled</w>
con trad
compe tence</w>
compan ion</w>
commit tees</w>
co al</w>
clo sure</w>
cli ff</w>
cle ared</w>
cl en
cl as
cir cu
che ek</w>
chair s</w>
ch rist</w>
certific ate</w>
casu alties</w>
cap abilities</w>
campaig ns</w>
c av
bur y</w>
bul let</w>
bul lah</w>
bro w</w>
bro m</w>
bra z
br on
br and
bom bs</w>
bloc ks</w>
bit t</w>
bir th
big ger</w>
belie f</w>
be er</w>
be c</w>
bat ken</w>
bas es</w>
bad ly</w>
bab bitt</w>
ba i</w>
b ia</w>
b ay</w>
az har</w>
at lanta</w>
at edly</w>
assass ination</w>
asi apl
asiapl us</w>
ashar q</w>
as if</w>
arri val</w>
arkadyev itch</w>
ar th
approxim ately</w>
appe aring</w>
angel es</w>
amaz ing</w>
ali yev</w>
al yosha</w>
al oud</w>
al em</w>
ah mad
ag gre
ag enda</w>
affir med</w>
aff ection</w>
ad e
ad dic
accep table</w>
7 1</w>
5 9</w>
5 1</w>
199 2</w>
198 0</w>
1 2
zar dar
zardar i</w>
z i</w>
you m</w>
y ff
yff ind
yffind or</w>
wiz ard</w>
witn esses</w>
whis per</w>
wh ist
weap on</w>
we ary</w>
w rest
w ishing</w>
vil le</w>
vi er</w>
v in
us alem</w>
ur ge</w>
ur a</w>
up in</w>
unic ef</w>
un ity</w>
un expected</w>
um s</w>
ultimat ely</w>
u tili
u no
u ae</w>
ty pical</w>
tun e</w>
tt le</w>
tru ck</w>
tri bes</w>
tri bes
transpor tation</w>
tr ash</w>
tor ture</w>
top ics</w>
tom s</w>
thr ust</w>
th eless</w>
techno logical</w>
te en
tag h</w>
t ches</w>
t asks</w>
syst em
symp toms</w>
swim ming</w>
swee ping</w>
swe at</w>
sugg ests</w>
succe ed</w>
sub stan
stu ck</w>
stop ping</w>
sti ff
st olen</w>
st led</w>
st i</w>
spec ies</w>
speak s</w>
som alia</w>
sol ar</w>
smil es</w>
sli ding</w>
six teen</w>
sil k</w>
sil ently</w>
signific antly</w>
sig nature</w>
si onal</w>
si ghts</w>
si e</w>
shou ting</w>
sha ped</w>
sh ine</w>
sh allow</w>
sex ual</w>
sent ences</w>
sel s</w>
see ks</w>
se f</w>
scor e</w>
sco res</w>
scar ed</w>
scand al</w>
sat ell
sa r</w>
s ounded</w>
s c</w>
ru in</w>
ru b
rout es</w>
rober ta</w>
ro cks</w>
ric h
ri ages</w>
rhe tt</w>
restor ed</w>
restor ation</w>
res em
represent ation</w>
ren ce</w>
remem bering</w>
remar ks</w>
reli able</w>
relati vely</w>
rel ate</w>
regim es</w>
ref ers</w>
rec k
re turns</w>
re ti
re mind</w>
re ferred</w>
re conc
re bel
ras sed</w>
ran ked</w>
ra za</w>
r at</w>
r ank</w>
quo te</w>
purcha sing</w>
provisi ons</w>
prosp ect</w>
promo tion</w>
promis ing</w>
produc tivity</w>
pro hi
priv ile
prison er</w>
pres sion</w>
pres ently</w>
prepar ation</w>
premi er</w>
preci ous</w>
pre ference</w>
prac tically</w>
pra yer</w>
por ch</w>
po t</w>
plat form</w>
per forming</w>
pe ak</w>
pay ing</w>
pati ence</w>
particip ating</w>
part ners</w>
pak ti
pac i
p ash
ox ide</w>
oun ced</w>
oli ver</w>
offici ally</w>
observ ers</w>
obser ving</w>
o ke</w>
num erous</w>
no vo
new ly</w>
never theless</w>
nazar bayev</w>
nar ro
n in
n gos</w>
n est</w>
n ally</w>
myster ious</w>
murdo ch</w>
mur tagh</w>
mor tality</w>
mom ents</w>
moham med</w>
moder ni
mo tion</w>
mid night</w>
mic ha
melan ie</w>
mechan isms</w>
mechan ical</w>
margare t</w>
mag az
ma il
lou dly</w>
lo ves</w>
lo ver</w>
lo t
lin ing</w>
li fe
laugh s</w>
l upin</w>
l est</w>
l ak
king dom</w>
kin dly</w>
ke en</w>
kari mov</w>
k iss</w>
k icked</w>
k ay
jun c
jour nal</w>
jo in
jer usalem</w>
jeal ous</w>
je ws</w>
je wish</w>
j on</w>
j eff</w>
j as
j ad</w>
iv an</w>
it ating</w>
isc al</w>
is y</w>
is al</w>
inv est</w>
inter v
integr ation</w>
inspec tor</w>
insp ired</w>
ing er</w>
indic ators</w>
increas ingly</w>
in fer
in cur
il les</w>
ignor e</w>
id a</w>
hydro electric</w>
hus h</w>
hor iz
histor ical</w>
hi er
hier arch
hat red</w>
ham as</w>
hal t</w>
ha w
ha b</w>
h ud
h r
guil ty</w>
gu es</w>
gru mbled</w>
gre ece</w>
graph y</w>
gr yffindor</w>
gr atul
good ness</w>
goo gle</w>
gol l</w>
go d
gi l</w>
gh ali</w>
genu ine</w>
ge o</w>
gall ery</w>
gab at</w>
g ps</w>
g ha
func tional</w>
fu zzy</w>
fu r</w>
fru it</w>
fro zen</w>
friend ship</w>
frequ ent</w>
foun der</w>
fol ks</w>
flow er</w>
fir mly</w>
fil ling</w>
fe tch</w>
favour able</w>
fain t</w>
facul ty</w>
facil itate</w>
fac tories</w>
fa iling</w>
f p</w>
f lip</w>
f itted</w>
f iscal</w>
f ant
exp on
exist ed</w>
ex tent</w>
ex changed</w>
ex act</w>
evalu ate</w>
est a</w>
entreprene urs</w>
enti tled</w>
enthusias m</w>
eng agement</w>
en ger</w>
en e</w>
empha sized</w>
embar rassed</w>
ele gant</w>
el o
el even</w>
effici ently</w>
econom ics</w>
earth quake</w>
e ze</w>
e ur
e ed</w>
e an</w>
du mp
du al</w>
dro ps</w>
dread ful</w>
dre ssing</w>
dr unk</w>
dr agged</w>
doz ens</w>
dom in
do or
distingu ished</w>
dist inc
dispos al</w>
dis appeared</w>
direc tors</w>
dic t
di ble</w>
devo tion</w>
deter i
destro ying</w>
dest iny</w>
depu ties</w>
deplo yed</w>
dep end</w>
demonstr ators</w>
demonstr ated</w>
deli ber
del ight</w>
dec l
de pri
de eper</w>
de dic
de als</w>
daugh ters</w>
critici zed</w>
cre w</w>
cre ative</w>
cr ack</w>
countr y
coun c
cou p</w>
corru pt</w>
cor p
conv ince</w>
contro ls</w>
contrac ts</w>
continu ing</w>
consid ers</w>
conf used</w>
concentr ate</w>
con qu
con gratul
compu ters</w>
compe ten
comp ound</w>
comb ination</w>
com ment</w>
col leagues</w>
co ok</w>
cl ash</w>
ci gare
chu ck
cho ices</w>
chil d
che er
cham bers</w>
ch ron
ch in</w>
ch im
ch ess</w>
ch er
ch at
ch ances</w>
ce ased</w>
cas h</w>
cas au
casau bon</w>
cap ability</w>
can cel
c ents</w>
bur den</w>
bu tt
bu ck
bl u
bir ds</w>
bi o
bel t</w>
be tr
bas in</w>
bare ly</w>
bar re
ban i</w>
bac ter
b old</w>
aw sat</w>
aw k
aw ful</w>
autonom ous</w>
attit ude</w>
att or
ato es</w>
at ers</w>
ass ur
ash gabat</w>
arti st</w>
arth ur</w>
arou sed</w>
architec ture</w>
ar ity</w>
appro aching</w>
an to
am y</w>
alter native</w>
algorith m</w>
al located</w>
al ling</w>
al id</w>
al es</w>
al arm</w>
air e</w>
ail ing</w>
ag ents</w>
ag ent</w>
adv entures</w>
ad mit</w>
abe l</w>
a ver
5 8</w>
5 4</w>
4 3</w>
199 8</w>
199 7</w>
19 6
. org
z ov</w>
z ia</w>
y n</w>
y gen</w>
y as
x y</w>
x in
wr apped</w>
worl d
wor ship</w>
wor shi
war ri
war m
w ned</w>
w ishes</w>
w h</w>
vol t
vo y</w>
vo y
vo tes</w>
vis t</w>
vis its</w>
vis itor</w>
vis ions</w>
vir tual</w>
veter ans</w>
ven ge
v it
v ex
v au
us eless</w>
urg ent</w>
up stairs</w>
up date</w>
un identified</w>
un employment</w>
uk ra
u pro
u gly</w>
tur n
tu zov</w>
tu be</w>
tri be</w>
treat y</w>
trav ell
trav eling</w>
transparen cy</w>
transi tional</w>
trad ing</w>
trad ers</w>
tra p</w>
tr un
tr il
tril lion</w>
top ic</w>
tit le</w>
tin o</w>
ti de</w>
thro wing</w>
thenardi er</w>
than ked</w>
th i
tel s</w>
teh sil</w>
techni que</w>
tah ri
tahri r</w>
ta b</w>
t ude</w>
t d</w>
t ant</w>
system atic</w>
symbo l</w>
swi ft</w>
swe ar</w>
sw ung</w>
suspici ous</w>
survi ve</w>
surren dered</w>
supp er</w>
sugg es
su gh
sugh d</w>
streng th
str anger</w>
stor ed</w>
stom ach</w>
st am
st al</w>
squ ad</w>
sp reading</w>
sou ls</w>
son gs</w>
some what</w>
sn apped</w>
six ty</w>
si zes</w>
si gh</w>
si de
si bil
sibil ities</w>
shru gged</w>
short age</w>
sho ot</w>
shiel d</w>
shi fted</w>
shi ft</w>
sha res</w>
sha de</w>
sh ri
sh i</w>
sh ell</w>
sh al
sev enth</w>
ser t</w>
sen ate</w>
sem ary</w>
se pt</w>
se ats</w>
satell ite</w>
sar cas
sal ary</w>
sad dle</w>
sa phi
saphi ra</w>
s wing</w>
s wa
s p</w>
s now
s es
s ement</w>
rush ed</w>
rosto v</w>
ro semary</w>
ro g
ro bes</w>
ro b
ris en</w>
ri et</w>
rhy th
resu med</w>
repe atedly</w>
remar ked</w>
reli ano</w>
rel and</w>
regist ration</w>
recommend ations</w>
re ward</w>
re mark</w>
re d
rad ical</w>
rad es</w>
ra v
ra ises</w>
ra h</w>
r d</w>
r ash
r as</w>
r age</w>
r ade</w>
quanti ties</w>
quali fied</w>
q is</w>
pursu e</w>
pur ple</w>
public ly</w>
public ations</w>
psy chi
prud ence</w>
provid ers</w>
prov ision</w>
protec ting</w>
prosec ution</w>
propos als</w>
prof ession</w>
produc er</w>
process or</w>
pro pose</w>
pre vention</w>
poten ti
pos ing</w>
pol l</w>
po ckets</w>
plun ged</w>
plic ity</w>
pi pe</w>
pharmac eu
pe g
peg go
peggo tty</w>
pe er</w>
pc b</w>
pav el</w>
patro l</w>
pass es</w>
pas sage</w>
parame ters</w>
pap a</w>
pan el</w>
pack age</w>
p r</w>
p oured</w>
p ent
p en</w>
ox ygen</w>
over whel
over head</w>
ou ts</w>
ou se</w>
ori ented</w>
or n</w>
open ly</w>
op ens</w>
om ing</w>
olymp ic</w>
oli vier</w>
occup y</w>
occup ation</w>
oc curren
o y</w>
o ci
novo sti</w>
norm ally</w>
ni kol
ni e</w>
neu tr
nar co
na sty</w>
n ity</w>
n ful</w>
n av
n ah
mu kh
mo ck</w>
mist ress</w>
mist akes</w>
mis ery</w>
mir acle</w>
migr ants</w>
micha el</w>
mexic o</w>
ment ally</w>
men ted</w>
med als</w>
mean time</w>
me tal</w>
me al</w>
mat rix</w>
martyr s</w>
man s</w>
magaz ine</w>
ma ur
ma them
m me</w>
m l</w>
m ate</w>
m al</w>
low ed</w>
lon g
lik eli
ligh ted</w>
li ght
li est</w>
legisl ative</w>
legisl ation</w>
law yers</w>
l or</w>
l it
l atin</w>
kun du
kundu z</w>
kun ar</w>
ku tuzov</w>
kno cked</w>
kind ness</w>
ken ya</w>
kee ps</w>
k wh</w>
k re
jud ges</w>
jo ining</w>
ji m</w>
jan g</w>
j es
jes us</w>
j ec
it ude</w>
it age</w>
is mail</w>
ira qis</w>
investig ations</w>
intro duce</w>
inst alled</w>
inqu iry</w>
ind ones
in sec
in o</w>
in ch</w>
in appropriate</w>
in ability</w>
ill ness</w>
identi fying</w>
ide ology</w>
id ation</w>
i reland</w>
i o</w>
hun ting</w>
human s</w>
hu t</w>
hu a</w>
hom el
homel and</w>
hom e
ho bb
hiz bullah</w>
hi ding</w>
her o</w>
her itage</w>
heav ily</w>
hear ts</w>
he t</w>
he els</w>
har riet</w>
har iri</w>
h t</w>
guid el
guaran tees</w>
gri gory</w>
gre en
gre ek</w>
graph ical</w>
grand mother</w>
grad ually</w>
gor ous</w>
good bye</w>
ggl es</w>
gg ling</w>
gg le</w>
ger y</w>
geor gi
ge ome
g ories</w>
g haz
fundam ental</w>
fun eral</w>
fun ded</w>
ful ness</w>
fr o</w>
four teen</w>
form al</w>
for give</w>
fo ol
flo ws</w>
fle xi
fl ame</w>
fir ing</w>
fier ce</w>
fi re
fel lows</w>
fav our</w>
far ming</w>
facil ity</w>
fa ils</w>
f ond</w>
f ishing</w>
f ers</w>
f ancy</w>
f ab
explo ded</w>
excell ent</w>
exam ples</w>
exam ination</w>
ex ists</w>
evol ution</w>
ev es</w>
ev ac
evac u
euro s</w>
eu gene</w>
estim ate</w>
es cal
er ness</w>
equi valent</w>
engine ers</w>
engine er</w>
eng age</w>
en vy</w>
en vel
en sur
embe dded</w>
embarrass ment</w>
em om
em in
educ ated</w>
eag erness</w>
e o
e ating</w>
down stairs</w>
doub led</w>
don t</w>
doc tr
div or
dis placed</w>
dis missed</w>
dic k</w>
deta il</w>
demonstr ations</w>
demonstr ate</w>
dem anding</w>
defend ants</w>
def ine</w>
dedic ated</w>
decl are</w>
decisi ve</w>
deal t</w>
dea f</w>
de an</w>
daz z
d itch</w>
d c</w>
d ay
cur ve</w>
cub ic</w>
cro ss
cro p</w>
critic ism</w>
correspon dent</w>
contro ver
contribu tions</w>
contribu tion</w>
cont acts</w>
consequ ence</w>
conclu sion</w>
con ten
con sent</w>
compen sation</w>
compe te</w>
comp as
commun ist</w>
comm it</w>
com rades</w>
coll ective</w>
coll ab
co vers</w>
co ok
clo thing</w>
chur ches</w>
chem ical</w>
che e
chann els</w>
cate gory</w>
cate gories</w>
cat ching</w>
cardin al</w>
can al</w>
can ad
canad ian</w>
camer a</w>
cal end
ca ve</w>
c ure</w>
c he</w>
by l</w>
butt ons</w>
but ler</w>
broad cast</w>
bri g
bri ef</w>
bri dges</w>
br is
br ings</w>
br ad
bon ds</w>
bom bers</w>
bo xes</w>
bo x
bo wed</w>
bloo d
bil li
ben ch</w>
beg ins</w>
be ings</w>
be ard</w>
be ar
baz a
bay eva</w>
bar rier</w>
bar ri
bal anced</w>
bag s</w>
bad akh
badakh shan</w>
b ang
aw ake</w>
au reliano</w>
atic s</w>
athle tes</w>
at am
aston ishment</w>
ass ist</w>
as signed</w>
arti cles</w>
art ag
artag nan</w>
arre sts</w>
ariz a</w>
argu ment</w>
ar ose</w>
ar gue</w>
ar ch</w>
ar a</w>
ap prehen
anony mous</w>
anony mity</w>
ang s</w>
an gu
am bition</w>
alter natives</w>
all u
al co
air lines</w>
ain able</w>
ag on
aff air</w>
advant ages</w>
ad oles
ach ment</w>
ac o</w>
absol ute</w>
aband oned</w>
ab i</w>
ab duc
a is
a ide</w>
3 9</w>
3 7</w>
199 6</w>
1 30</w>
1 20</w>
// www</w>
.org /
, 500</w>
z oda</w>
z am
you ths</w>
yem en
y us
yus u
y az
y ab</w>
x x
x o
xo te</w>
world wide</w>
with drew</w>
wi g</w>
whe els</w>
week end</w>
we igh
war n</w>
wan dered</w>
w b</w>
w ay
w are
vol can
vo ting</w>
vil le
ville fort</w>
venge ance</w>
ve ge
vari able</w>
van ity</w>
van ished</w>
val id</w>
vag ue</w>
vacc ine</w>
vacc ination</w>
v ron
vron sky</w>
v ation</w>
v ary</w>
ut most</w>
us al</w>
up ward</w>
unfortun ate</w>
un necessary</w>
un covered</w>
um ar</w>
ud h
tur ks</w>
tribes men</w>
trag edy</w>
tour ist</w>
to t</w>
tion less</w>
ti ly</w>
ti ble</w>
thre sh
thresh old</w>
the me</w>
th ick
th ered</w>
ter n</w>
ten sion</w>
ten den
tan e
tane ously</w>
tack le</w>
t wit
t fully</w>
t b</w>
t ative</w>
t as
t apped</w>
survi ved</w>
sur gery</w>
sud anese</w>
success es</w>
substan tial</w>
sub mit</w>
su its</w>
struc tured</w>
stro ke</w>
stra w</w>
stop s</w>
sti r
sti ly</w>
ste ve</w>
star tled</w>
st un
st u</w>
st ling</w>
st aying</w>
st aff
sp il
sp ain</w>
sol ely</w>
sn ar
smoo th</w>
smo king</w>
skir ts</w>
sign als</w>
si ri
shu ff
shr ine</w>
sho w
shar ia</w>
sha pes</w>
sha ded</w>
sh one</w>
sh ang
sev en
sem in
sel ection</w>
sel dom</w>
secre ts</w>
sec u
se as</w>
se al</w>
sad dam</w>
sa mond</w>
sa iling</w>
sa eed</w>
sa dly</w>
sa ble</w>
s nor
s ne
s man</w>
s lu
s ist</w>
s i</w>
rup tly</w>
rou ting</w>
ro samond</w>
ro ll</w>
ro cket</w>
ri pped</w>
revolu tionary</w>
rever se</w>
reven ue</w>
resul ting</w>
resul ted</w>
respon ded</w>
respec ted</w>
res is
republic ans</w>
ren tino</w>
remark able</w>
religi ons</w>
rej ection</w>
reco ver</w>
reco gn
read s</w>
re viewed</w>
re tain</w>
re t</w>
re signed</w>
re si
re form
re action</w>
ras kol
raskol nikov</w>
rang ers</w>
radi ation</w>
r it
r ice</w>
r ak
quo ta</w>
qui xote</w>
quali ties</w>
qat ar</w>
pursu ed</w>
public ation</w>
publ ishing</w>
pu zz
propos al</w>
produc ing</w>
proce eding</w>
proce eded</w>
pro cur
pri mar
primar ily</w>
presid ents</w>
pregn ant</w>
predic ted</w>
pre su
postp oned</w>
posi tively</w>
pop ul
pol ite</w>
plu g</w>
pleas ant
pl a
photograph s</w>
photo s</w>
photo graph</w>
philosoph y</w>
ph er
per pe
per mission</w>
pe l</w>
pe ar
pass eng
passeng ers</w>
parame ter</w>
parad ise</w>
par don</w>
par alle
paralle l</w>
pakti ka</w>
p ushing</w>
p p</w>
p lot</w>
p lo
out come</w>
or tho
or nam
or ange</w>
or al</w>
ong st</w>
om y</w>
om ar</w>
off enders</w>
occasi onally</w>
occas ions</w>
obst acles</w>
ob lasts</w>
o tic</w>
o od</w>
nur se</w>
non sense</w>
nit ude</w>
neighb ours</w>
neighb ors</w>
necess arily</w>
neare st</w>
narco tics</w>
n y
n u</w>
n ick</w>
mus icians</w>
mu d</w>
mu d
moun tain
mor t
mor rel</w>
mor oc
mol ec
modi ties</w>
mo tor</w>
mo tionless</w>
mo on
mo o
mo m</w>
mis t</w>
min g
mil i
mil an</w>
middle march</w>
mi x</w>
mer ry</w>
mem ber
mee ts</w>
may or</w>
mat h</w>
mar sh</w>
mar ine</w>
mag nitude</w>
ma sters</w>
m ill</w>
lu ke</w>
loy al</w>
lon ged</w>
logi c</w>
log ist</w>
lo ving</w>
liter ally</w>
lin s</w>
liber ation</w>
li ke
like wise</w>
less on</w>
legi timate</w>
lea f</w>
le on
lat ely</w>
l on</w>
kur dish</w>
kore an</w>
kat er
k ir
k ings</w>
k hel</w>
jum ped</w>
ja ws</w>
j ol
j ess
jess ica</w>
ir on
invol ve</w>
invisi ble</w>
investig ating</w>
investi gate</w>
inv en
inter medi
inter im</w>
inten sive</w>
inten se</w>
inqu ired</w>
inf ected</w>
indic ation</w>
ind ul
in timate</w>
in ti
in t
in i</w>
imag ination</w>
im pul
im patiently</w>
im a</w>
il es</w>
ikh wan</w>
ij ing</w>
id le</w>
id able</w>
ibra him</w>
i op
i h
i di
i b</w>
hur rying</w>
house hold</w>
hop ing</w>
hop efully</w>
ho tels</w>
ho ods</w>
heav ens</w>
ha stily</w>
ha ste</w>
ha sn</w>
ha q</w>
ha ir
ha i</w>
h s</w>
h o</w>
h ers</w>
h ec
guidel ines</w>
guar di
gu est</w>
gu essed</w>
gru b
grub bs</w>
grin ned</w>
grate ful</w>
grac eful</w>
gr in</w>
gr ati
gr as
gr abbed</w>
go wn</w>
go ds</w>
glo be</w>
gal lo
g or</w>
g on</w>
g aining</w>
fur y</w>
fur ious</w>
franc s</w>
fore ig
foot steps</w>
focus ing</w>
fo rec
flow ing</w>
flo rentino</w>
fle e</w>
fl ings</w>
fl ashed</w>
fi er</w>
fer oci
fe wer</w>
fe a
fav or</w>
face book</w>
fa i
f on
f it
exten ding</w>
exten d</w>
expres sing</w>
explo itation</w>
explan ation</w>
exp anded</w>
exp an
ex tor
ex t
ev ident</w>
et ts</w>
est eem</w>
er ba
equ ation</w>
enter prises</w>
enjo ying</w>
end ure</w>
en ly</w>
en der</w>
en cing</w>
en abled</w>
emp ire</w>
emp ir
emom ali</w>
emer ging</w>
emer ge</w>
em br
embr ace</w>
el ves</w>
el ty</w>
el er
effec tiveness</w>
ec tor</w>
ec ho
ec hes</w>
eag erly</w>
e y
e aten</w>
e a</w>
du tch</w>
dro pping</w>
dre amed</w>
don ors</w>
docum entation</w>
divor ce</w>
div ine</w>
distur bed</w>
discrimin ation</w>
disco very</w>
dis played</w>
dis appear</w>
dis abilities</w>
dic t</w>
di min
detec tion</w>
deser ted</w>
descri bes</w>
der a</w>
depos its</w>
dep ending</w>
den y</w>
deligh ted</w>
deli vered</w>
defe at</w>
def ending</w>
dec k</w>
dec ade</w>
de tention</w>
d ol
d mit
d ley</w>
d ily</w>
d ents</w>
d ana</w>
d ad
cultiv ation</w>
cul l
cry stal</w>
critic ised</w>
counter parts</w>
counc ils</w>
coun tenance</w>
corp se</w>
convic ted</w>
conveni ent</w>
cont empt</w>
cont aining</w>
consci ousness</w>
conf ident</w>
compl ained</w>
comp ly</w>
comp elled</w>
comman ds</w>
comm ents</w>
com rade</w>
com modities</w>
com mod
col our</w>
co verage</w>
co tt
co operate</w>
co ol
co ck
clu ster</w>
clu bs</w>
clim bed</w>
clim b</w>
classi fication</w>
clar issa</w>
cl ude</w>
cl ari
christi ans</w>
chec ks</w>
char ming</w>
ch ill</w>
ch i</w>
ch el
ces sions</w>
cent ri
cav al
care er</w>
car go</w>
cand le</w>
cam ps</w>
calend ar</w>
caf e</w>
ca tho
ca p</w>
c s</w>
c r</w>
c ited</w>
c d</w>
c age</w>
bun ch</w>
broo ks</w>
br an</w>
bor is</w>
boo t</w>
bon net</w>
bo ats</w>
bo ar
bil ls</w>
bi b</w>
ber tr
ber ry</w>
be ijing</w>
be have</w>
be half</w>
be aten</w>
be ach</w>
ban nu</w>
bal ls</w>
bak er</w>
b one</w>
b ars</w>
az erba
az a</w>
avi ation</w>
av esta</w>
au stri
attrac t</w>
atten ding</w>
att acking</w>
atam bayev</w>
assu ming</w>
ass ess</w>
as set</w>
arr ay</w>
ar ov</w>
ar bit
ar ag
appe ti
ap par
ant es</w>
ang i</w>
an der</w>
amend ment</w>
am ongst</w>
alle gedly</w>
ali ties</w>
ali ke</w>
alger ia</w>
aler t</w>
alco hol</w>
ak en</w>
ag la
ag ers</w>
ag an</w>
affili ated</w>
adop tion</w>
adequ ate</w>
ad am</w>
acquain tance</w>
achiev ing</w>
achiev ements</w>
accor d
accompl ished</w>
acc use</w>
acc eler
ab use</w>
ab sur
ab ruptly</w>
a ward</w>
a o</w>
8 th</w>
7 6</w>
7 3</w>
3 0
2 50</w>
12 th</w>
. m</w>
, 7
zer o</w>
z he
z ham
your selves</w>
you thful</w>
yemen i</w>
yass er</w>
y aw
y ar
xin hua</w>
x ic
wr ist</w>
work shop</w>
work er</w>
woo den</w>
with draw
will ing
willing ness</w>
wh i
we ir
we iner</w>
wash ing</w>
warm th</w>
war t</w>
war ding</w>
wan ting</w>
wal ks</w>
wal i</w>
wait i</w>
w to</w>
w t</w>
w ling</w>
w l</w>
w ire</w>
w im
w ic
w fp</w>
w az
volcan o</w>
vir gin
victor ia</w>
vi br
ven e
ve ins</w>
vac ation</w>
v lad
v et</w>
us etts</w>
ur ging</w>
up dated</w>
univer sal</w>
uni fied</w>
under take</w>
under ground</w>
un comfortable</w>
un certainty</w>
ud din</w>
tur ers</w>
tun bayeva</w>
tu n</w>
tu bes</w>
trou bles</w>
trium ph</w>
trium ph
tribun e</w>
tre ats</w>
tre ach
trav eled</w>
transl ated</w>
trans mission</w>
trans formation</w>
trans ferring</w>
trag ic</w>
traff icking</w>
trac king</w>
tr unk</w>
tr ous
trous ers</w>
tr am
tr ains</w>
tr ace</w>
tol erable</w>
to k
tis m</w>
tion ers</w>
ti tion</w>
ti s</w>
threat ening</w>
theat er</w>
the tic</w>
th ol
th ec
tex tile</w>
tenn is</w>
ten sions</w>
ten ing</w>
temp tation</w>
tari at</w>
tan ks</w>
tan gible</w>
ta k</w>
t u</w>
t to</w>
t ough</w>
t ess</w>
t elec
t am
sw an</w>
sust ainable</w>
surr ounding</w>
super inten
sup ports</w>
sup er</w>
suffici ently</w>
subsequ ently</w>
su gar</w>
strugg ling</w>
stro de</w>
stre tch</w>
str ous</w>
str ing</w>
stoc ks</w>
sto dy</w>
sti c</w>
ste in</w>
stat ue</w>
st ole</w>
st ered</w>
st a</w>
spokes woman</w>
spectac les</w>
speci alist</w>
spec t
sovere ign
sovereign ty</w>
sor row</w>
sol ving</w>
so le
so c
snat ched</w>
smu ggl
smoo thly</w>
sleep y</w>
sk ull</w>
siri us</w>
sing er</w>
sin king</w>
simul ation</w>
sim pl
sil es</w>
sig ning</w>
si p</w>
si di
shr ines</w>
shr ank</w>
sho es</w>
shir ts</w>
shi re</w>
she pher
she ets</w>
sharp ly</w>
shar k</w>
shang hai</w>
sha mi
sha h
sh out</w>
serge ant</w>
sequ ence</w>
secre tariat</w>
se t
se ize</w>
se attle</w>
scre am</w>
scr ap
schol ar</w>
scen es</w>
sc ar</w>
san g</w>
sali e</w>
sal eh</w>
saf ely</w>
sacri fic
sa il
sa b
s r</w>
s ors</w>
s no
s killed</w>
rum ours</w>
rul ers</w>
ru s</w>
roo ted</w>
ro t
ro sy</w>
ro salie</w>
ro me</w>
ro d</w>
ri vers</w>
ri ots</w>
ri fles</w>
ri dic
ri d</w>
revol t</w>
reve al</w>
respec ts</w>
reserv o
res or
repor ter</w>
rene wed</w>
rela xed</w>
regul ations</w>
reg ularly</w>
refuge e</w>
recru iting</w>
recru it
reconc ili
re vis
re pro
re pair</w>
re ferring</w>
re actors</w>
ra ids</w>
ra fa
r ors</w>
r c</w>
r at
r al
r ag
qui ries</w>
question ing</w>
qu il
qu id
quid ditch</w>
pursu it</w>
psychi at
professi on
profession als</w>
prof itable</w>
produc ers</w>
pro gres
pro found</w>
pro c
priv acy</w>
prev enti
prepar ations</w>
prec is
precis ely</w>
pre tend</w>
pre mis
premis es</w>
pr ic
pot atoes</w>
pop py</w>
po or
poor ly</w>
pleasant ness</w>
plan ted</w>
plain ly</w>
plac ing</w>
pist ol</w>
pil gri
petro v
peri ods</w>
perce ption</w>
per mit</w>
pen cil</w>
peas ant</w>
pe dia</w>
pay ments</w>
pav lov
pat ches</w>
particip ated</w>
par tial</w>
par ry</w>
pan e</w>
pain t</w>
pack ages</w>
paci fic</w>
p urity</w>
p it</w>
p ill
p ig
p han
p end
over all</w>
our ing</w>
ough ing</w>
organis ing</w>
or ing</w>
or ates</w>
or ated</w>
oper ators</w>
op ed</w>
off ence</w>
occur s</w>
oc t</w>
oc ity</w>
oc ide</w>
observ ation</w>
obli ged</w>
o ved</w>
o tunbayeva</w>
o re
o on</w>
o gen
north west</w>
nor ris</w>
no ting</w>
no ti
no te
nin th</w>
nikol ay</w>
night side</w>
nation alist</w>
nan o
nam ely</w>
na ils</w>
n ano</w>
myster y</w>
mur dered</w>
mun ici
mu tter</w>
mu kha
mour ning</w>
mountain ous</w>
moun t</w>
motiv ated</w>
mo h
mo dul
mis siles</w>
mis r</w>
min or</w>
min eral</w>
min ded</w>
mil dred</w>
micro soft</w>
mi x
mean ing
me ter</w>
me dov</w>
mc gon
mcgon ag
mcgonag all</w>
maul ana</w>
mass ach
massach usetts</w>
mar ched</w>
manufac turers</w>
man ners</w>
man bek</w>
mak er</w>
main taining</w>
main tained</w>
mag ne
mag ician</w>
m med</w>
m m</w>
m ir</w>
m id</w>
m ati
m are</w>
lux ury</w>
lu ci
loy ment</w>
low est</w>
loc ate</w>
lo g</w>
lo cal
light ning</w>
liber al</w>
less ons</w>
len e</w>
legen d</w>
le tting</w>
law suit</w>
laun ching</w>
langu ages</w>
la y
l td</w>
l ily</w>
kur manbek</w>
ku waiti</w>
kre acher</w>
kno ck</w>
kidn apped</w>
kho st</w>
kh alid</w>
ke l</w>
k night</w>
k hi
k ah</w>
just ine</w>
jur y</w>
jam a
j ack
j ab
ivan ovna</w>
itor ial</w>
it ous</w>
it ative</w>
it ar</w>
islam ists</w>
is abel</w>
is ab
isab ella</w>
ir ri
iop ia</w>
invol ves</w>
into xic
inti f
intif ada</w>
inter face</w>
integr ity</w>
instru ment</w>
innov ative</w>
initi atives</w>
initi ally</w>
inform al</w>
indign ation</w>
inde x</w>
incenti ves</w>
in tru
in tent</w>
in struction</w>
in n</w>
in ev
in er
in al</w>
implic ations</w>
imp acts</w>
imag inary</w>
im per
ignor ance</w>
ie u</w>
ie c</w>
ide al</w>
icul ar</w>
ick er</w>
i x</w>
i ths</w>
i p
i mov</w>
hun t</w>
hum ble</w>
hu b</w>
hor n</w>
hop eless</w>
hop eful</w>
hol land</w>
hol der</w>
hiz b</w>
hin der</w>
hes it
he y</w>
he ightened</w>
harv est</w>
har der</w>
ha st
ha sh
ha l</w>
ha j
ha iry</w>
ha bib</w>
h itting</w>
h ed</w>
h ated</w>
gu ided</w>
gri ff
gree ted</w>
great ly</w>
grap her</w>
govern orates</w>
glo omy</w>
glo b
gl ory</w>
gin ny</w>
gh ana</w>
georgi a</w>
gener ators</w>
gener ations</w>
gener ated</w>
gen ocide</w>
gal ax
gab e</w>
g in</w>
g ill
g ely</w>
form idable</w>
fool ish</w>
fol ding</w>
flee ing</w>
fl ung</w>
fir m
fin ite</w>
fil ms</w>
fil ed</w>
fi q</w>
feroci ous</w>
feasi ble</w>
fe eding</w>
fe ed</w>
fast est</w>
fa ults</w>
fa thers</w>
f lights</w>
f li
f au
f angs</w>
exten sion</w>
expor ting</w>
exper ti
expan sion</w>
exp ense</w>
exp elled</w>
exec ute</w>
ex ha
ev ing</w>
eth iopia</w>
es cor
er ial</w>
equi pped</w>
envel ope</w>
ensur ing</w>
enhan cing</w>
eng ines</w>
ende av
end ous</w>
end or
en tic
en ses</w>
en coun
emplo y</w>
empha sis</w>
em an</w>
em a</w>
eigh th</w>
e ter
e di
e be
ebe id</w>
dynam ic</w>
du ke</w>
du es</w>
du dley</w>
du bbed</w>
du bai</w>
dom inated</w>
diver se</w>
dis ru
dis abled</w>
dimen sions</w>
dimen sion</w>
di r</w>
devo ted</w>
dev i
deta iled</w>
descen ded</w>
depart ments</w>
dep loyment</w>
delic acy</w>
deli very</w>
dele gates</w>
de tain
de br
dag ger</w>
da isy</w>
d win
d aw
d antes</w>
cur led</w>
cul tures</w>
cu stody</w>
cru el</w>
cru cial</w>
cro ps</w>
cre pt</w>
cra zy</w>
cr ack
cour ses</w>
coun ted</w>
cor d</w>
cop per</w>
coo king</w>
coo ked</w>
conve yed</w>
contrad ic
cont ing
consu mption</w>
constitu te</w>
connec tions</w>
connec ting</w>
condem n</w>
conce p
conce al</w>
con voy</w>
con fined</w>
compon ent</w>
competi tors</w>
compas sion</w>
comfor tably</w>
comb ating</w>
com promise</w>
com ic</w>
com edy</w>
collap se</w>
coll ecting</w>
clin ic</w>
clen ched</w>
cle aring</w>
cle aning</w>
class ical</w>
cla iming</w>
cl ashes</w>
civil ization</w>
cir cles</w>
cho o
chie fs</w>
chec king</w>
chec ked</w>
char m</w>
cha udh
ch ic
certific ates</w>
centur ies</w>
celebr ate</w>
catho lic</w>
can e</w>
ca thy</w>
c z
c ence</w>
